[PAD]
[UNK]
[START]
[END]
!
"
#
$
%
&
'
(
)
*
+
,
-
.
/
0
1
2
3
4
5
6
7
8
9
:
;
<
=
>
?
@
[
\
]
_
`
a
b
c
d
e
f
g
h
i
j
k
l
m
n
o
p
q
r
s
t
u
v
w
x
y
z
{
}
~
the
that
to
of
it
and
is
in
you
we
this
for
they
people
have
on
are
can
or
not
with
as
there
just
but
like
so
what
be
if
about
do
very
re
because
think
also
all
one
taiwan
was
more
then
##s
at
from
which
their
by
how
don
other
really
will
when
who
your
our
social
actually
would
my
time
see
say
an
now
work
right
way
government
things
some
laughs
something
know
them
no
get
into
has
lot
make
yeah
these
data
here
different
out
want
any
public
much
me
where
open
even
good
only
course
first
use
part
kind
example
those
well
two
new
thing
going
up
same
maybe
digital
idea
go
sure
many
us
need
still
ve
##ing
than
around
each
working
were
years
year
system
been
doing
could
did
everybody
minister
through
every
yes
talk
most
after
take
technology
back
##ed
innovation
internet
before
already
being
basically
saying
world
said
doesn
media
society
called
had
exactly
why
ok
three
look
ministry
he
community
democracy
ll
whatever
##d
important
call
question
sector
using
national
own
always
let
great
may
point
day
feel
interesting
thank
process
should
between
making
instead
service
next
sense
law
change
start
anything
bit
##ly
better
over
case
such
platform
come
together
does
without
understand
fact
co
little
quite
used
ask
level
another
end
local
based
real
information
again
help
design
pretty
means
too
disinformation
conversation
ideas
whether
find
everything
space
trying
mean
few
problem
place
both
long
10
civil
five
its
share
having
talking
give
online
put
human
within
main
g0v
culture
trust
last
ministries
issues
become
done
person
project
second
office
got
she
ai
makes
movement
try
mask
source
says
experience
face
free
old
political
consensus
thinking
days
oh
common
election
less
rather
particular
policy
company
city
civic
issue
down
least
participation
questions
set
looking
high
software
care
team
education
taiwanese
private
power
didn
during
percent
cannot
meeting
international
presidential
countries
terms
learn
code
governance
mostly
made
four
state
model
once
probably
join
tech
transparency
build
facebook
started
side
website
while
live
am
development
line
able
agree
anyone
run
companies
read
whole
show
works
000
especially
citizens
getting
mentioned
large
name
learning
future
20
value
number
health
else
technologies
ways
##er
seen
itself
must
language
meaning
possible
english
ago
vtaiwan
gets
interested
usually
far
network
building
group
president
country
never
best
top
bring
literally
agenda
parliament
young
big
access
taipei
keep
party
##al
lab
sometimes
school
essentially
budget
early
china
money
went
hackathon
months
send
uber
voting
tell
business
role
million
##y
anyway
across
discussion
might
freedom
moment
happen
publish
term
non
week
places
asia
cabinet
word
speak
administration
cases
plan
projects
true
create
petition
communication
##n
news
taking
vote
norm
worked
mind
someone
general
meet
google
comes
##e
against
themselves
##r
though
participate
almost
fine
economy
regulation
check
came
personal
view
##t
form
research
relationship
support
message
focus
today
needs
couple
half
goes
hand
prc
self
cross
act
goals
away
occupy
everyone
job
thought
similar
tools
tw
foreign
guess
specific
stuff
values
happy
privacy
machine
impact
##a
either
12
small
useful
his
yet
answer
coming
fun
traditional
meetings
audrey
easy
campaign
chinese
radical
hours
democratic
hear
entire
existing
sharing
stakeholders
groups
under
off
room
certain
indigenous
month
quickly
phone
transparent
video
her
takes
definitely
global
sort
post
card
including
sustainable
council
setting
risk
previous
citizen
science
web
matter
##es
enough
email
involved
obviously
friends
minutes
quality
speaking
basic
control
wouldn
asking
intelligence
scale
medical
single
speech
talked
wanted
collaborative
easily
transcript
checking
systems
remember
generation
easier
center
personally
security
otherwise
words
gender
reality
legal
rights
write
servants
happening
difficult
shared
life
running
sandbox
asked
starting
map
often
hard
since
times
pol
approach
full
currently
hour
journalists
masks
nobody
topic
seeing
core
weeks
market
hong
nothing
interest
kong
seems
sorry
various
valley
paper
water
context
stage
##o
order
certainly
ministers
ones
population
environment
collaboration
creative
parts
silicon
understanding
past
premier
provide
career
six
gov
spread
found
computer
heard
##i
feelings
japan
related
##able
anymore
forward
learned
move
solve
legitimacy
position
current
students
points
30
air
curriculum
love
took
agency
reason
outside
virtual
deliberation
politics
clear
regulations
beginning
report
15
happens
response
stakeholder
sunflower
version
forum
governments
laws
app
popular
referendum
designed
participatory
shows
won
street
central
enterprise
somebody
communities
cool
happened
professional
twitter
decision
picture
until
credit
environmental
pay
becomes
choose
completely
board
strong
bad
program
knowledge
listen
myself
turn
100
changed
link
organization
aware
home
zero
university
previously
pandemic
willing
individual
original
physical
published
##l
per
area
simple
wrong
accountability
broadband
purpose
believe
third
charge
jurisdictions
later
teams
whenever
economic
built
cost
effect
counter
reach
situation
trade
multi
problems
infrastructure
organizations
press
difference
independent
yourself
collective
necessarily
foundation
key
saw
solution
story
content
innovations
nowadays
services
action
numbers
##ity
directly
license
explain
perspective
structure
tsai
cultural
driving
##ation
direction
contribute
hold
longer
industry
mandarin
record
debate
representative
##ment
taxi
tax
user
seven
languages
##ic
conference
contact
startup
food
connection
haven
mechanism
quarantine
spend
age
nice
sars
strategy
connect
creation
##ers
looks
play
ecosystem
regulatory
##g
goal
simply
youth
generally
##ism
amount
feeling
benefit
fair
hope
api
areas
covid
larger
sounds
entirely
huge
rumor
vision
2014
follow
platforms
close
experiment
translation
listening
major
natural
wrote
became
energy
joined
met
00
cyber
add
fake
germany
interview
journalism
spam
translate
account
domain
given
indeed
uk
partnership
specifically
eventually
training
direct
engagement
reverse
actual
buy
identity
smart
field
challenge
behind
solutions
conversations
special
states
wear
cybersecurity
him
members
sides
awesome
children
definition
rough
type
art
engage
head
mobile
procurement
totally
##k
##p
cities
fashion
history
pdis
book
hands
short
##c
ever
finally
recording
topics
attention
toward
##ize
literacy
voice
pre
higher
particularly
tool
association
created
perhaps
wide
knows
active
consultation
identify
soon
marriage
##h
##th
anywhere
commons
resources
14
although
improve
parties
standard
europe
family
introduce
climate
constitutional
mission
page
norms
recently
stay
thousands
analysis
policies
screen
wow
algorithm
compared
material
along
curious
##u
develop
distributed
event
sdgs
##ive
innovative
messages
island
##ized
taken
unique
wednesday
##ion
dr
imagine
sdg
technical
told
elections
hardware
17
isn
among
correct
decide
facts
figure
insurance
invite
respond
users
viral
creating
please
protection
visit
allow
game
primary
channel
lots
chat
regional
##ness
parents
positions
track
crowd
tang
apply
stop
fast
limited
opportunity
step
agreed
funding
left
giving
offer
propose
travel
wasn
##on
initial
perfect
sent
bot
break
others
yuan
##ate
effective
eight
written
funny
hacker
journalist
officers
text
changing
equality
horizontal
however
martial
product
reading
upon
clarification
gives
##m
talks
anarchist
thoughts
amazing
ourselves
sectors
surveillance
tend
transformation
brought
official
prime
##an
connected
deal
developed
normal
result
department
piece
##ting
background
cultures
guys
profit
virus
continue
drivers
friend
mps
region
touch
##us
50
cecc
feels
plastic
sign
zealand
##rs
clearly
click
theory
united
blockchain
helps
internal
misinformation
affairs
encourage
rural
consider
south
vr
##ry
filing
interaction
thanks
white
##izing
changes
force
hackers
reply
##en
##ies
enjoy
focused
further
whereas
protest
finance
humor
voluntary
##nt
enter
format
jurisdiction
practice
wondering
enable
portfolio
protect
16
application
concerns
effort
inclusive
rules
somehow
writing
address
available
creates
front
experts
french
investment
invited
majority
showing
##tion
leave
positive
search
successful
younger
collect
generations
hundreds
innovators
known
mayor
programs
random
schools
input
labor
nature
participating
requires
statement
un
accountable
decided
member
rumors
teachers
##te
divisive
beyond
discover
islands
ministerial
nearby
rule
##ization
convince
anti
putting
absolutely
concept
conservative
gdpr
town
##le
chain
convenience
examples
living
versus
##in
40
agreement
choice
decisions
domestic
ngos
nine
opinion
publicly
sustainability
tried
turns
advertisement
allows
anybody
authoritarian
period
prefer
publishing
comment
defense
industrial
pacific
passed
review
unless
automatically
helped
hospital
outrage
petitions
programming
subject
wants
welfare
branch
exchange
fear
include
pass
promise
speed
staff
chance
class
contribution
elderly
entrepreneurs
fund
police
spaces
sufficient
##ar
enables
held
pro
challenges
kinds
lead
moving
senior
teach
deliver
discovered
france
method
narrative
nation
potential
radically
startups
websites
agencies
asian
hmm
likely
translated
york
enterprises
helping
impossible
ledger
remote
singapore
##ist
constitution
experiences
initiative
super
truly
bringing
court
management
safe
student
canada
earlier
engineering
implement
older
success
supply
comments
copy
inclusion
legislation
becoming
copyright
green
iot
wait
default
mm
needed
servant
bunch
describe
everywhere
proposed
skills
walk
audience
basis
body
description
fit
introduced
liberal
low
planning
products
alternative
apple
list
lower
serve
towards
zone
request
votes
5g
argument
deep
democracies
dog
helpful
partners
production
tradition
immediately
negative
occupied
quick
respect
talent
test
capital
entrepreneurship
grow
instance
lack
none
officer
spreading
starts
stream
trophy
watch
youtube
bye
diversity
materials
photo
statements
store
wonder
button
expect
lines
plenty
style
binding
developing
joining
reasons
summit
korea
site
usual
60
closely
critical
receive
vehicles
##ts
car
experiments
facing
feedback
nations
partner
pharmacies
rest
solidarity
somewhere
##st
american
cause
communicate
designers
discussions
focusing
policymaking
ptt
table
worry
##ia
considered
distance
informed
japanese
measures
middle
somewhat
##ary
##est
assistive
awareness
box
dedicated
german
micro
multiple
pictures
win
##ian
automated
command
efforts
fully
supporting
visited
women
##it
##se
hair
measure
present
produce
recent
require
worth
colleagues
demand
hey
increase
led
models
processes
welcome
collaborate
coronavirus
movements
municipal
po
ready
section
seem
complete
elected
image
pm
runs
smaller
testing
##f
balance
depends
devices
excellent
kaohsiung
municipalities
ndc
night
push
workshops
artificial
attack
donation
ensure
executive
final
gave
gone
ground
influence
lost
morning
pressure
##ce
academic
afterwards
behavior
hat
honest
journalistic
polis
trending
200
according
assembly
committee
daily
demonstration
separate
several
4g
ahead
begin
crisis
due
fork
inside
presentation
realize
study
workers
yesterday
contributions
degree
dialogue
european
finding
github
legislative
paid
##or
activities
device
hall
neutral
required
sources
stock
technological
wearing
##ally
##ch
channels
fintech
justice
pollution
referenda
reporting
streaming
##nce
addition
bank
brings
director
emerging
familiar
interests
leading
methodology
providing
relevant
republic
therefore
alone
capacity
financial
growing
philosophy
progress
rely
views
born
competition
cycle
define
disagree
driver
harm
mentor
opinions
participants
resource
responsibility
wen
wikipedia
##less
bandwidth
collection
frame
interactive
notice
unlike
##b
beings
institutional
possibility
prototype
##v
airbnb
answers
applications
demo
expert
folks
near
pick
powerful
bill
chair
cofacts
following
microsoft
park
protocol
quadratic
deliberative
events
operating
results
return
tour
##ial
##ted
aspect
lose
minute
principle
removed
road
showed
spent
appreciate
de
deliberate
institutions
peer
rate
stories
telling
accept
avatar
comfortable
initially
innovate
levels
physically
proposal
quarter
above
bottom
collectively
connections
organize
propaganda
raw
workshop
##ated
framework
late
machines
meme
signal
trend
connecting
discuss
flow
healthcare
participated
reports
shape
##ful
autonomous
components
document
extra
implemented
light
mainstream
paying
purely
reduce
18
apps
chen
epidemic
fantastic
plus
solved
beijing
cars
details
id
interviews
location
millions
notes
potentially
transgender
visualization
voluntarily
22
child
drive
evidence
land
mail
mainland
promote
sound
waste
false
families
knowing
representatives
tracing
wall
19
advice
censorship
largest
papers
raise
reform
seconds
candidates
database
edit
engaging
forms
intentional
manage
names
operation
sometime
standards
title
universal
23
buying
checked
expensive
jaclyn
series
sms
established
everyday
felt
gradually
networks
politicians
red
trolls
vice
24
discourse
draft
enabled
flag
hackathons
institution
junior
spirit
straws
transcultural
##et
algorithms
binary
calls
described
dynamic
except
forth
interior
ops
principles
professor
structured
watching
wonderful
##2
##ent
##ling
##re
concrete
crowdfunding
distribution
index
initiatives
naturally
posted
sending
spending
threat
##ure
bridge
defined
gathering
leaders
pharmacy
solving
supported
2015
base
closed
faster
fight
individuals
ing
keeping
movie
paris
sell
serious
sorts
tainan
##age
##ant
hopefully
implementation
necessary
nevertheless
package
raised
scientific
uses
##ble
allowed
argue
builds
compare
condition
dictionary
invented
music
##ating
accounts
award
campaigns
earth
fascinating
fellow
methods
playing
quote
turned
tv
##0
##ities
ait
amplify
availability
computers
concern
costs
cute
designer
dollars
hi
importance
includes
interpretation
mandate
mozilla
opening
statistics
tomorrow
vertical
80
adopt
checkers
diverse
east
managed
pilot
suddenly
switch
weekly
administrative
approval
couldn
mechanisms
museum
responsible
sectoral
slide
academia
beautiful
carry
computing
contributed
corporation
download
friendly
function
hearing
house
january
op
opposite
plans
regular
secret
secure
sets
##ance
article
authority
conditions
date
delivery
era
etc
forums
independence
interface
measurement
mentors
military
missing
organized
plurality
save
ultimately
##ical
##um
##x
activists
ict
nhi
perl
universities
angle
broad
candidate
crowdsourced
driven
encrypted
equal
eyes
introducing
moved
prove
records
transition
transportation
wise
2016
32
99
camera
circular
closer
expertise
incentive
inspired
leadership
lockdown
radio
skill
teaching
worried
##at
##sing
average
draw
expand
hacking
purposes
register
robot
station
##ous
carbon
chang
march
meaningful
originally
relationships
scaling
stores
##line
advanced
calling
cheers
diplomacy
ends
eye
gap
harder
legislators
medium
mention
mode
operate
phones
session
voted
applied
budgeting
collecting
competence
internationally
officials
orders
projector
stand
teacher
understood
commercial
edge
file
guy
holding
org
path
polity
priority
rationing
registration
##istic
advertisements
books
crowdsourcing
growth
leader
maintain
mountain
occupiers
regardless
suggestions
thinks
##tic
##w
11
adopted
cut
diamond
eu
mutual
provides
researchers
scientists
shouldn
switzerland
##ter
absorb
actors
arguments
attribution
component
dashboard
decade
designing
firewall
grade
hello
humans
links
parliamentary
resistance
strictly
technically
truth
uberx
unit
##ging
##ped
achieve
actively
additional
committed
controversial
differently
empower
essential
fighting
gather
inaudible
joint
layer
madrid
ongoing
recorded
sleep
total
##ified
accessible
actions
attend
berlin
brain
centers
ethereum
exciting
explore
facilitator
handle
latest
lives
relatively
release
roll
sandstorm
sit
telecom
war
##ck
attacks
bits
characters
coding
differences
doubt
establish
facilitate
favorite
forces
hub
hundred
lived
makers
ngo
opportunities
panic
slides
threshold
wish
##ious
afraid
ah
black
documents
engineers
exist
expression
extended
extent
film
items
locally
obvious
representation
revolution
supposed
trusting
waiting
##ors
##ty
browser
determine
dot
excited
export
fault
fixed
hashtag
leads
offices
seriously
traditionally
union
##de
35
april
bigger
classes
consumer
empathy
install
jobs
kept
television
##ping
ability
america
anger
cards
count
cyberspace
fence
fix
formed
integrate
municipality
object
oriented
phase
property
size
thailand
##ke
benefits
corporate
efficient
equally
friday
games
host
looked
opposed
print
proposals
provided
vendors
wisdom
##ps
abstract
capitalism
double
electronic
feed
highest
institute
landscape
limit
london
memes
mindset
recognition
root
roughly
sponsored
status
western
##ability
##ine
anonymous
aspects
bilingual
block
considering
equivalent
meant
ocean
passengers
precisely
represent
ups
voices
##tive
africa
assessment
audit
bubble
enabling
engaged
experimental
fields
fly
fundamental
income
infodemic
note
recognize
safety
sentiment
slack
taoyuan
transcripts
##ish
##ists
##ss
activity
century
conspiracy
contract
contributing
cover
earthquake
factor
fourth
heart
october
partisan
partnerships
played
proof
revitalization
spectrum
streamed
target
types
vendor
##ual
##un
adapt
biggest
cheap
compatible
concerned
donations
integration
interact
notion
offering
practices
principal
resolution
semi
sitting
technologists
500
analyze
clarifications
delegate
elsewhere
estonia
facto
hit
journey
poem
price
proposing
received
recommend
ride
tension
upload
##am
##tor
compete
damage
discussed
experimentation
extremely
guaranteed
hack
india
investigative
junk
likes
loud
massive
offline
precision
slido
sovereign
spoke
suggest
tackle
task
treat
uncertainty
##7
1996
apart
commitment
depending
detect
door
fail
feature
gold
kids
metaphor
minority
optimistic
panel
refer
requirement
signatures
##id
##rating
##ward
affect
apis
aside
authoritarianism
chose
counterparts
cutting
declare
doctor
habit
howard
keeps
linux
matters
mayors
outcome
politically
properly
reddit
schedule
singularity
stations
survey
visiting
visitors
##1
##ding
##ence
##ns
##ve
90
architecture
brand
cloud
detail
donate
fire
imagination
industries
monitor
progressive
slow
strongly
taught
volunteer
##ring
anarchism
capability
criteria
dark
district
memory
scene
slightly
surface
troll
##as
25
auditing
balanced
barcelona
businesses
com
csr
cssta
developers
disaster
epidemiology
mapping
marketing
modern
recognized
se
strait
train
vaccine
videos
airbox
aren
bots
branding
collected
communications
deputy
ideological
investors
kmt
megabits
nor
objective
proper
shadow
taichung
talents
transfer
tuesday
valuable
winning
##ify
##ite
complex
complicated
convincing
decentralized
directions
editing
fall
globally
introduction
jury
knew
labs
lunch
manufacturing
merge
produced
reliable
societal
visual
##8
##ll
##z
assume
blue
brilliant
broadly
chi
controlled
converge
corporations
crowdsource
dialog
doctors
express
increasing
ledgers
lets
mainly
pink
pos
pushing
reached
referring
signed
sinica
##land
##ng
##ning
affected
ban
covered
emergent
fill
highly
jump
library
mine
mobilize
native
shift
speakers
visible
wuhan
##9
##ier
##os
##ving
aligned
capture
chief
consent
coverage
dinner
fishing
gain
integrated
mountains
noticed
overview
owned
prevent
regard
significant
suffer
tea
vehicle
venue
##ad
associations
bureaucracy
collaboratively
dealing
demands
emergency
engine
entity
evening
himself
internally
ish
mid
mix
ogp
overall
profile
pure
rolling
ruling
sport
sum
targeting
tells
vulnerable
whatsapp
##is
##ium
##way
2003
300
blame
cares
cooperation
deploy
diplomatic
elements
february
judicial
monday
normally
planet
poetry
practical
prepare
realized
reflect
server
theme
throughout
tourism
wake
wider
##el
##rd
affects
annual
artists
borders
capable
coalition
commit
coordinated
entities
forget
forking
founded
founder
frankly
funded
grant
implementing
instant
li
meters
multilateral
north
politician
powers
prize
pull
regarding
rolled
sex
societies
suffering
suggestion
tfcc
tissue
transport
trip
url
wu
applies
blog
despite
discord
facilitation
ietf
illegal
legitimate
marine
memetic
mental
methodologies
pages
performance
responses
san
scenario
sea
strike
studies
tokyo
trained
wash
##ification
70
agrees
archive
australia
automation
ballot
charities
college
connectivity
entrepreneur
equipment
freedoms
gdp
healthy
linear
organizing
output
qr
rare
reasonable
steps
straight
taxis
##ged
##ible
##ie
##sion
2020
accurate
budgets
centralized
computational
deeply
defining
dpa
drop
dropped
empowering
explicitly
female
flying
forming
han
hotel
invitation
leaving
mobility
parade
primarily
promoting
providers
rapid
round
seeking
sites
skype
trusted
worse
##ations
##ct
##up
accepted
afternoon
altogether
broadcast
digitally
discussing
distancing
dpp
educational
engineer
expense
facilitators
fits
improvement
maps
powered
protecting
referendums
scratch
sensors
september
serves
su
surprised
systemic
west
##3
##5
##da
##hip
##led
##nd
##to
##ulate
##ute
96
academy
advantage
avoid
bitcoin
briefly
bureau
clean
conflict
constructive
county
criminal
customers
ended
floor
hate
included
letter
minded
neighbors
onto
recommendations
registered
remain
representing
sandboxes
structures
widely
worldwide
##ments
##ne
2030
appear
appropriate
breaking
broken
cell
color
construction
decades
divide
external
generational
highlight
interns
json
largely
mass
mayoral
moves
multistakeholder
payment
precise
prepared
relying
rental
resonate
sentence
streets
telecoms
telepresence
walls
##il
##ise
adult
authentic
character
concepts
elders
explaining
forced
formal
generate
harmful
hoping
identified
lin
motivation
narratives
negotiation
phd
pieces
scan
selling
traditions
triple
woman
##4
##logy
360
acts
ad
agriculture
alternate
angry
animal
arts
bound
brief
canadian
cognitive
countering
customer
december
effectively
empowerment
exercise
goods
iceland
insight
judge
players
possibilities
presence
purview
thesis
toronto
transform
unfortunately
##cy
##pe
##uring
apparatus
bought
broader
camps
charity
coffee
configuration
constantly
consultations
correctly
dangerous
excuse
explained
famous
ideologies
iii
intervention
ip
november
portal
raising
relations
replace
river
sees
teleworking
turning
wherever
##ide
##king
##red
##sis
added
advisory
branches
choices
connects
drafting
encouraging
freely
improving
mathematics
moea
opened
personnel
producing
radicalxchange
relation
slowly
stake
targets
theories
transmission
watched
##les
##out
##table
##ves
abroad
acting
autonomy
beneficial
commands
commission
creators
departments
determined
entered
ethics
governmental
hakka
historical
inform
intention
ipad
listed
ordinary
podcast
priorities
psychological
randomly
regime
simon
sphere
suppose
tricycles
##ge
##ries
2018
blah
crazy
debates
democratization
emphasize
extend
functions
images
incentives
log
loss
markets
monthly
net
nuanced
openness
perspectives
pride
regulate
rooms
select
shares
telemedicine
thousand
tribe
visa
volunteers
windows
yu
##ics
##ma
##me
##ming
##rate
##ta
advocate
announcement
bills
busy
ceo
comparison
complain
continuous
display
fiction
framing
gps
ibm
ideal
impression
independently
june
limits
mac
mit
mobilization
petitioners
pitch
pleasure
protected
signature
silos
spreadsheet
star
telecommunication
tracking
translating
twice
urban
weibo
wifi
##ates
##tes
##ung
adding
attract
brainstorming
clause
deliberations
designs
developer
earn
effects
emphasis
extension
failure
fairly
incredible
involve
linked
messaging
moe
mofa
novel
opposition
ownership
printed
processing
professors
protesting
reminds
repeat
roles
scope
shaped
strategies
strict
stronger
underlying
viewpoint
weird
##im
##ncy
##ze
13
advance
associated
attended
boy
brainstorm
buildings
category
circle
fleet
guarantee
hierarchical
ic
intellectual
invest
meter
miss
options
overlapping
parks
photos
plant
proud
rational
saves
secretary
spokesperson
takedown
theoretically
tiananmen
timeline
unions
violent
virtually
##ants
##ls
65
answered
asks
caring
challenging
claim
compromise
conferences
deployed
expanding
finished
geography
grants
hengchun
importantly
inspiration
inviting
italy
item
learns
legislature
logo
male
overseas
patterns
permission
polarization
protects
ran
reported
resonates
responding
route
schema
strange
sun
taiwancanhelp
##ative
##ire
##med
##ration
align
animals
below
confirmed
coordination
dimensional
founders
governing
grew
hire
hot
impressive
july
laundering
lifted
measuring
negotiate
pattern
producers
protests
queuing
react
remind
socially
solar
treatment
umbrella
update
##ue
activist
adequacy
announced
associate
augmented
boxes
catch
clarify
closest
column
dad
deeper
delegates
deliberated
factual
flower
glad
horizon
immersive
mp
ncc
nowhere
petitioned
populism
proprietary
range
readable
reflective
released
solves
strength
studying
targeted
traveling
via
yours
##cing
##down
3d
advocacy
alliance
approaches
commerce
convinced
dc
dogs
editor
encryption
expectations
explanation
funds
genuinely
grassroots
greater
helicopters
insights
inter
joy
lobbying
operators
percentage
pillars
polarized
reinforce
relate
reveal
speaks
stages
stands
tao
tested
themself
trump
viable
wenliang
wind
##ay
##ied
##ms
agile
caused
clusters
competitive
confidential
consultant
continental
credibility
cryptocurrency
david
deliberating
disease
drink
educated
empowered
figuring
gctf
girls
hanging
intentionally
legacy
legally
lens
lessons
magazine
merged
organizers
palace
perfectly
perming
petitioning
projection
promised
puts
reaches
remains
saving
structural
techniques
tens
township
unlimited
##ets
adopting
allocate
applying
banking
bilateral
chatbot
civicus
colleague
confidence
covers
digi
eager
factors
finish
leverage
manner
mark
offered
petitioner
reward
sentiments
shopping
summary
traffic
tzu
understudy
visibility
##q
##ric
##sed
1922
2017
90s
academics
accessibility
aim
airport
blind
cofact
constitutionally
element
emotional
expectation
financing
flip
fundamentally
hashtags
influenced
interactions
invent
iteration
legislator
licenses
maker
minds
neither
opt
pipeline
proactive
reducing
reset
scalable
score
secrets
spain
spoken
stable
stopped
symptoms
tank
upset
usage
wave
winners
worrying
##6
##ft
##ition
##ively
##ral
##sh
afterward
aggregate
amis
artist
bias
bluetooth
boundaries
burden
cameras
captured
carries
classical
competency
corrective
curiosity
declared
developments
dimensions
disclose
entry
fleets
graduate
impressed
indonesia
invention
kitchen
korean
letting
nt
operations
option
packages
participant
pdf
penetration
plays
posts
presented
prevention
rating
recovery
rice
sanction
socialtext
soft
successfully
territory
updated
weather
window
##ably
##co
##ri
##ster
##tation
169
affordable
amplified
assistance
automate
banned
beat
camp
caught
con
concerning
constant
counting
danger
dedicate
electricity
emotions
federal
flexible
fortunate
heavy
hybrid
incoming
interpretations
involves
laptop
lock
match
motivated
noise
nuclear
organizational
pertaining
posting
quit
qv
relinquish
resident
soap
square
taxation
versed
whichever
workflow
##ake
##all
##per
##ra
algorithmic
analytics
border
clinic
competing
conduct
congress
consistent
consumers
counterpart
describing
digitalization
dignity
distinction
emotion
entering
exclusive
experienced
factcheck
hasn
heads
housing
initiated
inoculation
involvement
launched
lifting
magic
mainstreaming
motc
objects
partly
philosophical
protocols
rails
rank
sanitation
sayit
signals
sovereignty
sow
split
synthetic
ted
textbook
trail
trans
treated
typical
vaccines
voters
##ee
##ering
##ess
##ians
##man
##mark
##ur
##ying
2004
2012
2013
98
aging
agricultural
alternatives
ambassador
arm
assistant
audio
ching
creativity
duty
emails
emerge
evolve
father
generated
grows
identification
ideology
indoor
judgment
launch
logic
maori
mentioning
mistakes
opens
parallel
patients
preferred
recommendation
regularly
represents
retired
seat
semiconductor
serving
sessions
shiba
shortage
stack
timely
tries
versions
wanting
yellow
##ao
##aries
##cted
##la
##ned
##val
400
accepting
adults
allowing
answering
antisocial
applicable
banning
began
cat
certificate
choosing
cluster
collaboratives
combination
contributors
creator
detection
distribute
explains
facilitating
firm
herself
hosted
hr
layers
mistake
operator
opposing
policymakers
publication
reaching
recruit
residents
selected
shut
siri
spot
strangers
straw
substantial
summon
vicinity
vitalik
zoom
##ings
##ny
##ut
2000
adjust
alignment
allocated
ar
articles
asset
awards
broadcasting
calm
categories
charged
ci
cohack
comparable
constituents
consulting
coordinate
dimension
efficiency
favor
handing
handled
hip
increased
inspiring
judges
lawyers
linking
lobbyists
mature
missions
moderator
necessity
organizer
picked
pointing
preparing
promises
purchase
puzzle
redesign
relies
resilient
rise
sales
scientist
screens
spokesdog
sponsor
spreads
subjects
submit
taxes
telegram
ticket
trends
unwashed
violence
walking
wellington
##bs
##ds
##gs
##uted
2019
actor
aid
army
attitude
behave
billion
commentary
computation
delivered
deployment
dial
dozen
duties
easiest
encouraged
evolution
exhibition
expected
extreme
flood
folder
guidelines
height
honor
humanity
hurt
incorporate
joel
kpis
math
nonprofit
pain
pair
permanent
poems
proven
regulators
relative
robots
sensitive
shown
speeches
ties
typing
vis
warning
winner
zones
##ach
##act
##cycle
##go
##making
##ons
##oo
##ses
##tions
##ured
80s
absolute
african
allies
analogy
approved
breaks
carrying
cc
chapter
civics
collaborations
communicating
communist
consuming
corner
drones
examination
expressions
facilitated
grand
holds
intergenerational
la
laugh
losing
obsolete
planned
playbook
poetic
predict
programmers
quantitative
receiving
recursive
refuse
remix
renewable
rivers
season
shaping
shu
summer
tied
upcoming
youtubers
##box
##ction
##des
##dy
##ered
##om
##pa
##pt
afford
arrived
attached
bar
behalf
belong
beta
capstone
chuan
collaborating
combine
contemporary
currency
disclosure
dollar
embassy
encounter
ensuring
epa
fellows
flagging
followed
grateful
household
humorous
ignore
leakage
lifelong
livestream
man
master
mixed
mom
offers
olds
openapi
origin
paint
passing
pharmacists
poetician
pool
pricing
puberty
reaction
readers
requirements
reuters
rich
sample
si
speaker
standardized
supporters
surgery
syndrome
virality
worker
##tain
1st
95
august
battery
blocks
cats
cooperative
counts
crucial
deciding
demonstrate
dictatorship
discrimination
drawing
exists
exporting
exposed
factory
fifth
firefox
firsthand
flowers
forcing
forever
fresh
god
graph
helicopter
hired
hobby
incredibly
institutionalized
integrity
leaking
liked
loomio
maintained
meta
mouth
movies
observed
offshore
outbreak
presenting
prosper
refused
resolved
reuse
scholars
seats
spamhaus
systematically
telephone
tower
trace
tracks
trusts
units
upper
vocabulary
whereabouts
whose
##ab
##ang
##graphic
##ory
##ot
##ow
##tt
##uation
##use
##vable
##ware
apparently
arrive
assuming
automatic
batch
booth
circles
consult
continuing
dominate
firmly
foster
fulfill
heavily
ideation
immediate
increasingly
instrumental
leak
lists
manipulation
massively
observation
oslo
overlap
passport
perception
plants
practically
promoted
promotion
qualify
realm
relational
represented
resilience
rhetoric
sensor
sold
southeast
stuck
switched
themes
translator
ultimate
understandable
voter
wars
worlds
##board
##encing
##ient
##izes
##ki
##nts
##ular
##ways
asvda
austronesian
author
authorities
blocking
boston
bulletin
capabilities
cash
cdc
clinics
coalitions
coin
comic
counties
databases
dynamics
elaborate
embrace
enjoying
fabric
fang
files
functional
halls
holistic
immigration
infrastructures
intermediary
label
lawmakers
leaves
length
logistics
lottery
managing
mandatory
metrics
michael
moderation
officially
openly
organic
paste
possibly
reasonably
reference
respectively
seattle
shuyang
similarly
spanish
stick
studied
suggested
swipe
warnings
##bling
##ca
##cent
##cle
##fect
##ions
##ip
##ishing
##ix
##list
##na
##nk
##ose
##sm
##work
37
abuse
activism
addiction
adoption
advocating
analog
arguing
cap
carefully
champions
chances
chart
cheng
circulation
continued
contracts
dependent
discipline
encountered
enhancing
establishing
evolving
existential
experimenting
gaming
gift
glass
hang
hospitals
injustice
javascript
joke
liberty
listened
philippines
pipes
plate
pr
preserving
pressing
protesters
proxy
queue
reinforcing
sends
shorter
species
stimulus
survive
sv
tackling
technologist
toxic
translations
trial
usr
##back
##end
##fold
##fully
##ibility
##ifying
##ler
##orn
##rated
##room
##ulated
##ulation
##ution
2021
acceptable
amateur
amazon
anonymity
anticipate
appeal
banks
causes
cc0
censor
chiang
clarified
coherent
colors
convenient
convert
death
defines
delivering
disappear
divided
donating
empathize
employees
empty
equipped
excluded
exclusively
exploring
externalities
feasible
fiber
gds
hangzhou
infiltration
interestingly
intranet
inu
lands
lee
lesson
loop
machinery
measurements
mentorship
metadata
mr
operates
pasted
paul
perceive
persons
pirate
prediction
premise
quarantining
relax
russia
sad
sake
seed
sophisticated
sourced
spiritual
staying
strategic
supreme
tallying
throw
tremendous
trolling
untruth
upgrade
venture
venues
weren
workplace
##ave
##ening
##ff
##ile
##que
##time
addresses
announce
anytime
arrangement
atmosphere
attempts
attractive
ballots
boards
bodies
boring
capitalist
conscious
contain
denmark
disabilities
dream
exact
existence
facilities
features
flight
foreigners
founding
frequently
hackpad
honestly
humanitarian
identifying
increases
indo
innovator
interacting
interviewed
jade
kuo
leaderless
limitation
medicine
multinational
mutually
narrow
okay
operational
ourself
outcomes
oversight
phenomenon
physics
placed
pop
promising
reduction
reflects
regions
remaining
replaced
requests
returning
salary
saturday
snowden
stickers
stress
struggle
surprising
surprisingly
swiss
tweet
typhoon
verify
washing
xrspace
##em
##grapher
##omy
##right
##tory
##used
alongside
anarchistic
bid
cambridge
ccp
cheaper
checks
commitments
complained
complementary
consciousness
consultative
crypto
defend
dispatch
elect
electric
endeavors
enemies
enforcement
ethnic
evaluate
evolved
explosively
failed
farming
gay
glasses
govtech
identities
imagined
investing
keyboard
labeling
lai
lifetime
mathematical
measured
mirror
mother
named
newer
oil
partnering
pays
peoples
phrase
preference
prosocial
reflection
resolve
risks
sim
struggling
systemically
transitional
trivial
vaccination
vibrant
visits
weekend
whatsoever
worldview
yearly
##graphy
##ight
##iling
##ir
##ited
##op
##ro
##rt
##uel
##ved
ads
angles
approve
biased
biodiversity
bulk
careful
centered
chairs
charging
civilization
cohort
courses
csv
decoy
depth
detailed
difficulties
discovery
employment
fish
girl
guide
harmony
hubs
huh
impacted
improved
inauguration
insist
investor
java
maintaining
minimum
modify
npo
ours
paradigm
payer
penghu
procedure
producer
programmer
replicate
residence
reviews
reykjavik
roads
scam
scheme
sciences
served
shifting
situations
spare
switching
synergy
taoist
threats
thursday
trustworthy
uh
utensils
yngve
##ball
##bility
##book
##coming
##ger
##ina
##lab
##point
##racy
##stic
##tech
##tors
##ude
##yu
agreeing
attempt
attending
battle
brother
characteristics
citizenry
classified
coded
combined
comprehensive
confident
crack
depend
domains
dominant
echo
educate
faith
films
fraction
genuine
grandparents
hostile
individually
installed
instrument
interference
kid
lagrange
moderate
monopoly
multinationals
negotiations
nightlife
npos
obligation
optimism
optimist
parameters
passive
peace
polarizing
profits
race
realizing
reject
remove
sacrifice
schoolers
shareholders
silo
sized
skilled
solid
spreadsheets
stayed
storage
sub
tom
touched
tracked
trouble
warm
wins
##cation
##cies
##ded
##gen
##ication
##ice
##ised
##one
##power
##ream
##sp
##uity
##vise
advise
appears
assets
bangkok
begins
centimeters
chosen
classic
coders
compact
digit
division
divisiveness
domestically
drain
drill
drunk
earthquakes
eat
economies
ethical
ethnographic
euros
faced
fails
fairness
figured
foia
governor
highlights
hosting
huawei
info
inquiry
instagram
manager
manufactured
migrant
missed
modalities
modes
neighborhood
newspaper
ordering
outdoor
outline
outreach
peaceful
pension
perceived
perform
pocket
procurements
prototyped
ratified
recycling
reduced
rent
respected
responsive
seemed
sentences
settle
sexual
shareholder
simplified
slogan
stance
stem
stops
supportive
systematic
tasks
taste
tie
treating
ubi
valid
washington
waves
wiki
##ap
##ath
##atic
##bly
##erative
##fine
##gate
##ifies
##ily
##ood
##tivism
##wan
##zed
2008
34
accelerator
agent
alive
avatars
beauty
blindly
bureaucratic
cayman
citizenship
comedians
committing
conform
confusing
continent
contributes
coordinating
councilor
councilors
debated
difficulty
drinking
dropping
ecology
enhance
excel
exception
exposure
fee
fixing
flagged
glen
hadn
hugging
improvements
inbox
infected
integrating
intended
iota
kernel
liquor
magical
matching
maximize
men
mobilized
modeled
navigate
penalty
poet
pointed
populations
presidents
provider
punish
pursue
rainbow
relates
replacing
reputation
researcher
resonating
responded
revenue
script
scroll
settled
sick
stewardship
successes
supposedly
symptom
taitung
terrible
tickets
transaction
transactional
translates
travels
tree
unlikely
versa
virtue
vocal
volume
warfare
wing
wording
worst
writes
##aking
##card
##ino
##lt
##metric
##ntly
##over
##ph
##rge
##side
##uck
10th
admit
advisor
antivirus
appointed
arc
barrier
basement
boundary
bowling
bridges
centric
chef
classroom
club
combat
conferencing
conserve
contained
contains
contrast
convene
cooperatives
corners
criticism
debris
demonstrated
density
distrust
ensures
enters
episode
expecting
facility
falls
fb
fears
flesh
flows
flu
forked
fought
gained
hats
historically
hop
iamthecode
immune
import
incident
incubator
interpret
intersectionality
metric
moments
monitoring
motion
natives
neutrality
norway
oneself
pareto
prior
professionals
properties
pseudonym
rail
reader
reflections
reporter
respective
robust
sen
shih
ship
signing
song
supplies
tag
tangible
textual
typically
unusual
variety
vast
viewpoints
wild
worries
##ads
##air
##als
##au
##der
##ened
##ep
##fined
##imeter
##ky
##light
##lls
##most
##ner
##ple
##ply
##pp
##tional
##tle
##ug
##uns
##vent
##verse
##zing
21
33
advertisers
amplifier
amplifying
arbitrary
architect
athletes
backgrounds
belongs
bi
birth
broke
cable
california
ceremony
chung
clicking
client
clock
codes
columns
consistently
continuously
controversy
dilemma
dozens
drawn
drinks
eastern
engines
enormous
environments
error
ethos
feng
flexibility
formats
former
framed
frontline
gaps
gotten
heading
hearings
highlighting
hoklo
humble
ifcn
intermediaries
involving
liquid
lo
ly
maintenance
managers
nesta
netherlands
nurses
occupying
overnight
payments
peers
philosopher
plug
pok
poor
practicing
printing
projected
proportional
publishes
recurring
referred
refresh
relaxed
repair
requiring
resonance
restricted
restrictions
returned
robotic
sacrificing
scooters
seek
selection
shoes
sme
spec
sports
stays
steering
suspects
swift
synergies
verified
viewing
visions
zongchai
##ace
##ah
##ats
##cating
##day
##iant
##ica
##igating
##ike
##ining
##ique
##lation
##lly
##minate
##nces
##ones
##ora
##pile
##rily
##sts
##sure
##umb
##utes
##vising
20th
absorbed
absorbing
adversarial
alternating
appealing
attacking
blocked
boss
campaigning
clarifying
clustering
coast
compelling
conclusion
confuse
confused
constrained
consume
contributor
convey
cooker
corresponds
covering
culturally
curate
deliberately
destroy
disciplines
drives
economically
editors
entertainment
follows
footage
frank
governed
hotline
incubation
intimate
investments
isolation
john
keen
kill
manga
manufacture
metro
minor
mock
modality
painted
passion
personhood
picking
pizza
privilege
prototyping
quarterly
ranking
rapidly
regards
revealed
ring
rush
skip
slower
substantially
symbolic
te
temperature
textbooks
tours
tseng
upvote
victory
viewers
vp
vpn
weak
wife
willingness
wired
yushan
##ack
##ading
##ale
##are
##by
##cover
##dication
##ey
##fc
##gi
##ha
##ience
##ig
##ising
##ks
##marks
##matic
##nial
##oke
##ol
##ound
##pose
##rew
##sive
##tail
##ters
##ties
##usion
21st
adapted
addicted
addressing
agents
aiming
amsterdam
anxiety
apparent
backed
behaviors
blindness
calculate
cast
causing
charter
chores
cite
cited
coach
cohen
colleges
competent
concerted
controlling
corona
councils
crowdlaw
declining
decrease
determines
digitization
disruptive
drug
elites
enjoyed
entirety
evaluation
expenditure
explicit
fan
figures
footprint
forgot
fuller
globe
grandchildren
granted
illusion
innovating
intern
interpreted
interrupt
invested
jianguo
kolas
limiting
meaningfully
mentality
merely
mohw
newspapers
panels
patent
patient
peak
ping
player
practitioners
prayer
prominent
proposition
province
quoted
regimes
regulated
religion
republican
revenge
satisfy
scales
shot
siloed
sortition
specialized
spring
storytelling
supports
theater
threatening
touring
trading
transcription
transitioning
trips
trustworthiness
wei
whoever
yat
##acing
##berg
##ees
##ens
##gies
##gue
##iating
##ically
##imate
##iously
##iting
##ivity
##logical
##maker
##men
##mp
##nded
##oked
##ole
##quence
##rained
##rator
##servation
##sted
##ture
##using
##uting
ages
ambient
amendments
assumption
band
bars
bbc
belief
biases
capitalists
cio
coercive
colored
concentrate
confusion
continues
cradle
deals
debating
deploying
dialogues
exponential
faces
facial
facilitative
filter
focuses
formula
geneva
geographic
gsg
headset
holo
hotels
hyper
implications
indicators
inequality
intel
iq
jokes
lego
literature
lobby
matrix
maximum
midnight
mon
n95
netflix
networking
nonpartisan
nurse
objectives
observe
optic
orchid
overarching
parking
parliamentarians
passenger
passes
plural
prototypes
pushed
rarely
ratio
rebuild
reflected
registry
reporters
restriction
rocket
scaled
shop
speculative
standing
surrounding
tends
tensions
thai
thinkers
towers
transactions
triangulation
undergrad
unified
utility
verbal
visualize
whatnot
witnessed
##ain
##con
##dies
##ents
##etic
##gain
##ime
##ional
##ipe
##lines
##mer
##oking
##old
##pan
##pl
##pressed
##raft
##rds
##ringing
##rity
##ron
##sions
##ua
##ver
101
11th
17th
70s
a4
agreements
aiot
airboxes
airplane
aloud
anarchy
atm
attracted
auction
bald
barricade
barriers
bbs
bio
blessed
blessing
blood
buterin
chairman
childhood
chip
claims
clients
concretely
concurrently
congratulations
constraints
crash
dead
delete
demanding
describes
destination
distinct
drone
embedded
epidemiologist
esport
excluding
flash
fraud
fruitful
govern
grab
greatest
habits
hidden
hierarchies
icelandic
impose
indexed
inoculated
intensive
interfere
interventions
intuition
irc
isolated
jointly
kai
kick
kiosk
ko
lacking
landing
leaks
learnings
licensing
lineages
loves
malaysia
marginal
minimal
mood
mountaineering
naer
neural
ning
occupies
operated
optimizing
partial
passionate
pen
penalties
pill
poll
preventing
processed
procure
pronounce
ranked
ration
recognizing
relief
repository
reviewed
saved
scenarios
settings
shanghai
silly
simplify
soccer
speculation
sponsors
sprint
statistical
steam
streams
studio
subscribe
sunday
suspect
sustain
technologically
teenagers
token
touching
transcribed
transforming
transparently
trilingual
unification
uniquely
verticals
village
wed
weight
yang
yeh
zach
##ape
##ash
##ba
##bing
##cs
##culate
##dition
##inal
##inct
##ined
##isation
##lay
##lihood
##ncing
##nder
##nding
##oi
##ological
##ops
##ories
##phic
##ray
##row
##sert
##serve
##set
##tically
##tics
##tte
##ulating
##uries
##va
##version
140
600
achieved
achieving
aggregated
amendment
anarchists
anchor
announcements
apac
backlash
badge
banner
blank
cancer
catching
chamber
chapters
chia
circumstances
collaborators
commander
confirm
conjunction
construct
consumption
contracting
controllership
convergence
cooperate
correspond
declaration
democratized
disadvantaged
dive
documented
dominating
doubts
drew
drupal
dynasty
electoral
enabler
engagements
exchanges
excludes
filmed
fingers
flagship
forefront
francisco
freenet
futures
gaining
gates
generates
git
gradual
handling
hiking
honored
htc
improves
inputs
issued
issuing
itri
kao
keynote
keywords
kindergarten
kpi
lea
lgbtq
liability
lineage
lowercase
lucky
magically
mandates
mentoring
mimetic
misunderstanding
momentum
murder
newly
niche
ntu
occasionally
oracle
orange
originated
piety
plain
presentations
profession
proved
pushback
realities
receipt
reconcile
refusing
remixes
responds
retain
revitalize
richard
shan
shifted
shirt
shortly
simultaneously
stars
succeed
surprise
teaches
tele
telework
toolkit
tribes
understands
upstream
vietnam
wealth
widespread
wondered
worthwhile
##cate
##ciation
##cks
##eds
##els
##gating
##gging
##hou
##hy
##iation
##ibly
##ita
##ius
##izers
##lex
##li
##md
##mes
##metry
##net
##nn
##ology
##ost
##pes
##play
##pu
##race
##rect
##rn
##spect
##town
##uate
##uce
##ucks
##uit
##und
##utive
##zable
18f
accident
addis
advocates
alcohol
amounts
assist
asynchronous
attribute
blogging
british
capitalistic
caption
capturing
checker
chronic
concentrated
consul
continuity
controller
corresponding
costly
curve
decisional
detected
dictionaries
digits
directional
disrupt
distinguish
donated
drafts
encourages
establishment
evidences
exceptions
execution
expanded
farm
filial
fined
finland
font
fortunately
foundations
glance
gray
grown
gutenberg
harassment
hardened
hoc
homo
hualien
inclined
individualistic
jui
jumping
kit
lawyer
lecture
liaison
limitations
manual
manufacturer
marry
merging
mis
mistaken
moedict
notification
obligations
optimize
os
outlines
overcome
oxford
partnered
pertains
portion
preferences
procedures
prompted
quantify
rapport
ray
recordings
recruited
releasing
rightscon
shek
shield
singaporean
smooth
sourcing
st
standpoint
sue
suffers
sufficiently
surely
surge
tendency
terrorism
thoroughly
till
tim
tiny
translators
trendy
trigger
unconstitutional
unrelated
vessels
vive
walks
waterbox
youtuber
##10
##acked
##ators
##atory
##away
##bit
##bound
##cious
##dal
##dating
##ell
##iary
##iate
##icable
##ill
##ingly
##ips
##mission
##nted
##oon
##rent
##ria
##rial
##rk
##sible
##thon
##trust
##ulous
2000s
acquired
addressed
adds
ambulance
amplification
apologize
approaching
arguably
assignment
attributed
bootstrap
bother
breakthrough
buttocks
bylaws
carried
civilized
comfort
comparing
competencies
consequences
constructed
correlate
credits
cup
delay
democratize
desire
determining
differs
digitized
disciplinary
discovering
doors
drills
earliest
en
enforce
enjoyable
ethnicity
extends
extract
failures
farms
fewer
fidelity
filled
fringe
garden
gatherings
george
gmt
guard
helplessness
holders
homes
hypothesis
icon
inauthentic
informs
inherent
ink
inquiries
inspections
iphone
ladder
lady
lamps
latin
lectures
legalese
leonard
licensed
literate
livestreamed
localization
logical
loved
lovely
ma
manifesto
marginalized
memories
menu
microphone
mini
mining
moral
musical
nationals
navy
nearly
netzdg
noon
normativity
numbering
openstreetmap
participative
performing
perm
pescadores
piloting
pipe
plates
port
poverty
presumably
prevents
profitable
proportion
proving
provoke
proximity
psychology
pursuing
radius
raises
rates
reinforces
replicated
researching
reserved
resist
revealing
rewards
rising
risky
satellite
satisfied
segment
semiconductors
sewf
sheer
stereotypes
strengths
swarm
symbol
taf
talented
technique
therapy
thrive
tolerance
trick
unity
untrue
violation
whistleblowing
xml
##acted
##ancy
##be
##bles
##bo
##crats
##ctor
##culating
##culture
##cure
##ending
##facing
##feed
##fer
##ga
##han
##icious
##inating
##ior
##ites
##its
##ivist
##las
##lating
##lets
##load
##mination
##missions
##mize
##nse
##off
##oot
##ore
##oss
##ows
##ption
##sign
##tations
##tf
##tland
##ule
##ump
##unded
##unt
##ustration
##utor
##vised
97
accelerators
advantages
advent
ais
allocation
ambassadors
amongst
anonymously
appeared
appoints
attacked
authorized
axis
barely
besides
boot
boys
brands
bureaucrats
burning
bus
captures
certified
champion
chaos
colin
complexity
concentration
consensual
controversies
correction
coupled
dan
dataset
debian
demonstrating
downvote
eclectic
eid
exclude
fees
festival
fi
fines
fluid
furthering
generative
gogoro
guessing
headed
hepatitis
ico
ideally
implementations
inaugural
infinite
inspection
inspire
instruments
intent
intuitive
io
israel
jason
je
justify
keyword
larry
laughter
lay
letters
login
manipulated
manufacturers
metaphors
negotiating
nhia
node
nonprofits
obama
override
oversee
owns
paperwork
paragraph
patreon
pb
permit
pertinent
pivot
plane
preferably
preparation
privileged
ratification
ratify
reactions
recorder
remained
reminder
representational
responsibilities
restrict
resume
revolutionary
rxc
sapiens
seoul
shortcut
singular
slice
southbound
stanford
strikes
suggesting
surveys
susceptible
tables
tap
teleworkers
theoretical
threatened
tier
touches
ugly
ui
underneath
updates
violate
wechat
wore
yield
yotaka
youngest
zhengfawei
##ances
##ars
##bel
##bilities
##cast
##ched
##ctory
##di
##eat
##ential
##eo
##fied
##gible
##gregation
##hin
##iang
##icit
##inary
##ital
##itic
##ivate
##late
##lin
##menting
##ort
##ously
##pass
##passing
##pic
##rence
##rgent
##ruction
##ship
##son
##tate
##undant
##urrencies
##vation
##vention
##vert
##wards
##yalty
##zi
1989
2005
94
actionable
adjustments
aisle
android
archives
arena
artifacts
arxiv
bed
bidding
bono
brazil
brexit
bullying
challenged
chemical
chrome
chulalongkorn
cken
classmates
closes
closing
concluded
confucius
connector
consideration
container
converged
copies
creations
credentials
curator
decides
delegation
differ
divides
doc
documentary
doubles
dual
ease
ecological
effectiveness
elab
embracing
empowers
essence
ethercalc
ethiopia
ex
extraordinary
financially
flights
formation
fragmented
fukuoka
gathered
gec
geek
golden
guest
guidance
handed
hilarious
hiring
ho
holopolis
hsu
hug
igf
incorporated
intelligent
internship
interviewing
invites
irrelevant
iterate
joe
joyful
king
lasting
lazy
le
learner
legalized
lgbt
lies
lily
marked
mechanical
mediators
merit
mess
minorities
mygopen
nyc
okinawa
optics
ottawa
outdated
outlined
oversea
owner
owners
password
patents
payload
pessimistic
powerpoint
preciado
precinct
projections
promotes
pseudonymous
pseudonyms
puberties
recruitment
reduces
refrain
regulating
rewrite
saarbr
sat
scarcity
scared
shall
shapes
shrinking
smes
spammers
specialize
sponsorship
stamp
stopping
stylus
surgical
synthesize
teleconference
tests
thread
throwing
tokens
tore
tribal
ubuntu
ukraine
unfair
unite
utopian
viewed
vouchers
vulnerability
wcit
weyl
whomever
yi
ying
zhongyang
##action
##ague
##ama
##ard
##ceptive
##cess
##ching
##cles
##erating
##form
##gy
##hed
##icient
##iding
##igation
##igence
##iny
##itive
##ivating
##kin
##lied
##like
##mo
##nna
##ok
##ome
##outs
##phia
##pr
##ql
##rave
##sal
##ser
##sphere
##standing
##tent
##tra
##ught
##ui
##unk
##uo
##urable
##ural
##vian
##vision
##vs
##wing
26
36
45
48
81
91
ababa
accidentally
advancing
ambitious
appreciated
assess
assured
audreyt
authentication
authoritative
bargaining
baseball
biological
blockchains
broadcasted
bubbles
canvas
cheese
clever
climb
colonizing
composition
contacted
contractor
contractors
correlation
corruption
courts
covert
cto
curriculums
daoist
democratizing
diagram
digitize
dissemination
dna
draws
economist
edinburgh
employ
ethic
experiencing
expo
fab
fashionable
federated
filed
finds
finger
flaws
forest
fridays
fruit
fruits
geeks
generic
greece
handicapped
harmless
hierarchy
homemakers
immigrants
immunity
implicit
inner
jen
jian
judiciary
jurisdictional
kanban
keelung
kyc
laughed
listeners
locked
loopholes
malicious
masses
messenger
mitigation
mobilizing
moderated
netscape
observations
occur
ocr
oculus
orientation
outdoors
outlook
overt
pace
pause
pencil
personality
peter
pharmacist
pilots
porn
practiced
preach
prison
productive
productivity
protestors
publisher
qualified
quicker
quota
quotes
readily
regionally
regulative
religious
residency
respecting
revision
rid
roc
roots
rotating
ruled
scans
sdk
seal
setup
showcase
sketch
smartphones
someplace
specialty
spots
subjective
subsidy
summarize
tailor
tanks
tape
testosterone
tone
transmit
transmitted
trees
tricky
tweak
uploading
ux
vaccinated
vending
voucher
whom
wicked
william
##acies
##ag
##ai
##aneous
##ator
##brate
##crat
##dering
##dor
##ems
##ensive
##ently
##ery
##fest
##fing
##gh
##gling
##ield
##iers
##igate
##ign
##inate
##int
##itarian
##iving
##kan
##let
##lies
##lip
##lled
##mail
##minated
##ote
##our
##ove
##ox
##pable
##plied
##purpose
##rush
##starter
##sters
##stitute
##struction
##structive
##tal
##ued
##uing
##uma
##uous
##ux
##xi
130
20s
49
75
accent
addictive
adviser
affinity
alluded
amend
americans
analytica
ancient
anthropology
appoint
arrange
artistic
assign
assistants
authors
balancing
balcony
bootstrapping
bridging
buckminster
cantonese
carl
carrefour
catalyst
cellphone
chambers
chatting
christopher
clay
coincides
cold
collaborated
combines
combining
commonalities
conclusions
converted
cookies
copied
corp
couples
crime
cryptographic
curation
declaring
desktop
digitizing
directed
disruption
eco
ecosystems
efficiently
endeavor
endpoint
enemy
epidemiologists
epistemic
explored
expressed
externality
feeds
filling
filming
fiscal
followers
gitcoin
goodwill
gopher
gossip
grandma
grid
harms
heroes
highlighted
hyperlink
identifies
immerse
impacts
incentivize
incentivized
incidentally
inexpensive
instantly
investigation
italian
jail
jeou
jersey
journals
keys
lend
lesser
lockdowns
mao
meanwhile
medicare
meetup
mexico
migrate
mile
moon
nationalist
nervous
nonviolent
nordic
obey
orthogonal
paradox
parent
pi
pillar
pm2
populist
predictable
preprint
presidency
prioritize
produces
prompt
qualifies
qualitative
quantum
raspberry
recap
reflecting
reinventing
rejected
repetitive
resigned
reviewing
revised
rewarding
rounds
safely
sandwich
schooling
scoring
shops
shout
similarity
snapshot
songs
sooner
southern
spelled
stone
subscription
taoism
tonight
transcends
transculturalism
traumatic
tsmc
twin
typos
underground
undermine
unhappy
upcycling
uploaded
usa
usd
vancouver
vc
vessel
wedding
witness
worthy
writer
writers
yep
##0s
##ac
##ane
##asure
##bage
##cated
##cator
##cators
##cd
##cial
##com
##cope
##count
##ection
##ek
##hot
##hwa
##ially
##iring
##ished
##itable
##itude
##ku
##lan
##ld
##ller
##logies
##low
##mas
##media
##nged
##ography
##oid
##rable
##rain
##ription
##rists
##sa
##sition
##sk
##style
##tling
##ton
##type
##ud
##urn
##ust
##vene
##vival
##wn
##word
##ws
##yng
180
1995
87
93
abstraction
accounting
accurately
acer
adapting
affiliation
aims
ally
ambition
angel
anxious
assemble
assumes
audited
beforehand
belonging
berners
blueprint
bored
bost
browsers
caf
cancel
catalog
clickbait
cogov
coined
commonly
competitors
complement
conforming
confucian
consciously
constituency
contacts
controls
convening
convergent
corps
creatively
crew
crossroads
crowdfunded
cruise
customize
dashboards
datasets
dates
daughter
detriment
disclosed
disconnect
dissent
dlt
earned
eligible
emerged
envision
epicenter
epicenters
equipments
equitable
eradicator
etops
evil
experimented
farther
fascinated
fights
firms
fitting
fortune
foxconn
gains
gpt
halfway
handful
harmonization
haskell
headquarters
hero
hologram
hominem
hosts
hq
immigrant
inforian
intense
interdependence
intro
iphones
jargon
journal
karen
kentucky
knock
lately
learners
lie
linguistic
loan
loses
luck
manipulate
meanings
moderators
monetary
namely
netizens
newest
nickname
nodes
ocf
offense
organ
par
permissionless
phenomena
philanthropy
pinyin
prefers
premiere
pretend
prices
proactively
protective
proves
pulled
quarantined
quarters
questionnaire
quo
readiness
reception
recruiting
redesigning
reminded
reusing
rfc
robotics
russian
saas
sandy
sci
sender
sensing
ships
signs
sky
smartphone
socialist
someday
specification
stakes
steve
stewards
stored
strengthen
subsequent
subsidiary
sudden
supporter
synthesized
taiping
tally
tango
teenager
template
temporal
thereby
tick
timeframe
tired
tough
traced
trades
trials
triangle
trophies
universe
viewer
visitor
whiteboard
yahoo
yay
##airs
##aive
##ald
##ana
##arn
##ber
##berating
##breaking
##ced
##cline
##cting
##dicate
##dicating
##eit
##eries
##fill
##fs
##gage
##graphics
##ham
##he
##hore
##ifiable
##ilization
##ination
##ink
##iological
##isk
##lance
##ledge
##lling
##mation
##nc
##nch
##od
##person
##phrase
##press
##rant
##rative
##res
##riving
##roll
##rown
##ruct
##sistent
##sting
##tating
##teral
##tract
##ues
##uristic
##vasive
##vate
##ven
##wed
##writing
##za
3g
89
aaron
accordingly
accuracy
additionally
adhere
advertising
affront
alert
appeals
assurance
attraction
auto
averse
backbone
bear
believes
bind
bloggers
bond
bottles
breakaway
brian
buddhist
cart
channeled
chaotic
chien
chips
clash
clauses
cleared
clothes
comics
commissioner
complaining
complementing
completing
compliance
conservation
conserving
constraint
containing
contest
contrary
converging
cornell
corrected
crossing
cryptography
cuts
dance
defer
democratically
dependency
die
disabled
disadvantage
disappointed
diseases
dispute
doublethink
elementary
elite
etalab
ethernet
evolutionary
exclusion
existed
explosion
exported
expose
expressing
falling
finalized
fishers
flipped
flips
foreigner
formative
freshly
fundraising
genders
gestures
govlab
habitat
harming
harmonize
hook
hopeful
hostess
huang
icann
ice
implies
inevitably
instances
integrators
intentions
intersectional
inventor
investigate
invisible
ipv6
judgments
kanji
kiang
lamb
layout
linkedin
linus
locality
located
locations
loudest
luxury
married
membership
mob
nameless
nationality
negotiated
neighbor
notions
npm
observing
obstacles
occurred
occurs
onward
packaging
pan
passports
pedestrian
philosophies
pipelines
popularity
portable
portrait
preferable
proceed
procuring
projectors
provocative
psychologically
r0
rally
rallying
rap
rationed
reads
recreate
registering
relating
relaxing
relevance
reminding
replying
reserve
resulted
returns
ribbon
ridiculous
roadmap
s3
satisfying
secondments
sharp
shipping
silver
similarities
simulation
steward
stipend
stranger
stretch
stupid
suppliers
sweet
symbolizes
tablet
temporary
ten
threatens
thriving
tongue
tons
treaty
tweets
unheard
unites
utilize
visuals
vulnerabilities
walked
wang
wednesdays
whistleblower
wimax
witnessing
workspace
wrap
yuval
##50
##ak
##announced
##ans
##ari
##arian
##asa
##astic
##atures
##bate
##bedience
##bert
##ces
##ches
##cord
##cribe
##cute
##cycles
##dle
##drop
##du
##era
##ert
##fn
##frame
##front
##fugees
##gic
##gist
##hi
##ht
##iao
##icial
##icity
##iency
##ii
##ille
##ima
##inable
##irectional
##ired
##ires
##isan
##izer
##ka
##lated
##law
##lic
##lining
##lists
##lla
##lo
##lue
##minating
##mit
##ml
##mon
##nal
##nders
##nent
##nistic
##ometers
##oms
##ope
##oring
##orse
##oting
##ou
##plete
##pling
##po
##polation
##quate
##ram
##raries
##rey
##rick
##rm
##roach
##rse
##sc
##sexual
##site
##struct
##ten
##tend
##uctive
##ugs
##ume
##uration
##urch
##urity
##ury
##vably
##vest
##vity
##vr
##vy
##whelming
##wise
##yi
12th
150
160
2007
31st
abused
accelerate
achievement
activate
adaptation
agendas
alien
ambitions
amplifies
anecdote
animated
anonymization
approached
apses
assisted
assumed
atayal
badly
barricading
bathroom
bet
blogs
boost
brainstormed
branded
breakfast
broadcaster
burn
calculated
characterize
civilian
classify
clone
coil
coins
commenting
cons
conserved
contention
contextual
cooking
corrupt
csos
curated
designated
devolution
died
discourage
distributing
divisions
docker
doctrine
domesticate
dongsha
drafted
edited
eliminate
embargo
embed
empathetic
endless
entitled
errors
estonian
etherpad
evolves
exchanging
executives
exiles
exportable
farmers
fell
feminist
flat
flew
flipping
fold
forbidden
frequent
frozen
frustrating
geographically
geopolitical
gita
graphic
graphics
guiding
handles
happiness
heat
heritage
hollywood
houses
http
hugely
ignorance
imbalance
inclusivity
influential
informing
infringe
inherently
initiate
inspirational
intrinsic
inventing
inventions
joins
kenya
kings
lane
laughing
linguistics
livestreaming
logs
longest
loosely
lowers
mandated
marketplace
marks
mary
mathematically
meaningless
meets
meetups
misinformed
modeling
motivates
mou
msmes
nat
nearest
neatly
newcomers
nuit
observer
odd
offs
oftentimes
olfa
opting
originates
pact
painting
paradigms
paths
pc
pin
pioneered
plastics
plugin
pollination
polling
polluting
populace
portability
poster
pot
predicated
proceedings
projecting
pronounced
purchasing
rain
ramping
realistic
realization
realtimeboard
reconciliation
reforms
regulator
reliably
remarkable
remarkably
repeated
replies
responsibly
restaurant
roaming
rotate
routine
satire
scanned
scheduled
searching
sections
selfish
servers
sexuality
shame
sheet
shenzhen
shortened
singing
smea
specialists
specifics
spell
spin
strain
struck
submitted
substance
swap
sweden
tabular
tactics
tai
taicca
taxed
terrific
texts
toll
tracers
tradeoff
trajectory
trapped
traveled
tune
turbines
uncollected
uncomfortable
uphold
usability
utilitarian
vacation
vague
vicki
visually
weekends
whoa
wine
workforce
worldviews
www
##!
##"
###
##$
##%
##&
##'
##(
##)
##*
##+
##,
##-
##.
##/
##:
##;
##<
##=
##>
##?
##@
##[
##\
##]
##_
##`
##j
##{
##}
##~
