[PAD]
[UNK]
[START]
[END]
!
"
#
$
%
&
'
(
)
*
+
,
-
.
/
0
1
2
3
4
5
6
7
8
9
:
;
=
?
@
[
\
]
_
a
b
c
d
e
f
g
h
i
j
k
l
m
n
o
p
q
r
s
t
u
v
w
x
y
z
{
}
£
©
«
¬
®
°
·
×
ø
ƒ
ʉ
‐
–
—
‘
’
“
”
„
 
€
、
。
「
」
ㄧ
一
七
三
上
下
不
且
世
丘
丟
並
中
丹
主
久
之
乎
乏
九
也
了
事
二
互
五
些
亞
交
亨
享
亮
人
什
仁
仇
今
介
他
付
代
令
以
仲
件
任
份
企
伏
会
伴
似
但
位
低
住
佔
何
余
作
你
併
使
來
例
供
侶
便
係
促
保
信
修
個
們
倒
候
借
倡
值
假
偉
偏
做
健
備
傳
傷
傾
像
僕
價
儀
儲
元
充
先
光
免
兒
入
內
全
兩
八
公
六
共
其
具
典
再
冒
凝
出
函
分
切
列
初
別
利
到
制
刻
前
剑
剛
剝
剩
創
力
功
加
助
勇
動
務
勞
募
勢
勵
包
化
北
匯
區
十
千
升
午
半
华
卓
協
南
占
卦
印
即
卷
原
厲
去
参
參
又
及
友
反
取
受
口
古
句
另
只
叫
可
台
史
右
司
吃
各
合
同
名
向
君
否
吧
含
吳
吸
告
呢
周
命
和
品
員
哪
唐
唯
商
啊
問
喜
單
嗎
器
嚴
四
回
因
困
圈
國
圍
圖
團
土
在
地
址
坊
坑
坡
型
城
域
培
基
報
場
塊
填
境
壞
士
夏
外
多
夠
大
天
太
央
失
夷
套
女
她
好
如
始
委
姨
姻
婉
婚
媒
子
字
存
孩
學
它
安
完
宗
官
定
客
宣
室
害
家
容
察
實
寧
審
寫
寬
將
專
對
導
小
少
尤
就
尼
展
層
岸
島
工
差
己
已
市
希
師
帳
帶
常
幫
平
年
幸
幾
序
底
府
度
庫
康
廠
廣
延
建
式
引
張
強
形
彩
影
彼
往
征
待
很
律
後
得
從
微
徵
德
心
必
志
忙
快
念
怎
怕
思
性
息
您
情
惡
想
愈
意
愛
感
慈
態
慢
慧
慮
憑
憨
憶
懂
應
懷
戀
成
我
或
戰
所
手
才
打
扣
找
技
把
投
抗
拿
持
指
按
挑
挺
捐
掉
採
接
控
推
提
換
揭
援
播
擊
支
收
改
攻
放
政
效
敗
教
散
整
數
文
料
新
斷
方
於
施
旁
族
旗
日
早
明
易
星
映
昨
是
時
景
智
暖
暴
更
書
最
會
月
有
朋
服
望
期
未
本
李
材
束
東
松
林
果
架
某
染
查
校
核
根
格
案
條
棋
棒
楊
楚
業
概
榮
構
樂
標
模
樣
機
權
次
歐
歡
止
正
此
步
歲
歷
段
每
比
民
氣
水
永
求
江
決
沒
沙
治
況
法
注
津
洲
活
派
流
海
消
深
清
減
測
港
源
準
溝
滿
演
澳
激
濟
灣
災
為
無
然
照
熟
營
爆
爭
爾
片
版
牌
牛
物
特
狀
獨
獻
玉
現
理
瑋
環
甚
生
產
用
由
申
界
留
畫
當
疑
疫
疾
登
發
白
百
的
益
盒
盛
盟
盡
監
目
直
相
省
看
真
眼
眾
瞭
知
矽
研
破
硬
碰
確
碼
礎
示
社
神
票
福
禮
科
稅
程
稍
種
稱
稿
積
究
空
突
立
站
章
端
競
笑
第
等
答
策
算
管
節
篡
簡
精
糟
系
紀
約
納
紐
紙
級
素
組
結
絕
給
統
經
維
網
線
練
總
績
織
繫
繼
續
缺
置
署
美
群
義
習
翔
翻
老
考
者
而
聊
聚
聞
聯
職
聽
育
背
能
脫
腦
臉
自
至
致
臺
與
興
舉
般
色
花
英
草
華
萬
落
葉
著
蔡
藝
蘋
蘭
處
融
行
術
街
衡
表
被
補
裡
製
複
西
要
覆
見
規
視
覺
觀
角
解
言
計
訊
討
訓
記
訪
設
許
訴
詢
試
詩
話
該
認
語
說
誰
課
調
談
請
論
諮
謂
講
謝
證
識
譯
議
護
讀
變
讓
谷
象
負
貢
貨
責
買
費
資
質
賴
賺
購
走
起
超
越
趣
足
跑
距
跟
跨
路
跳
身
車
軍
軟
較
載
輕
輩
轉
辦
辭
迎
近
送
透
逐
這
通
造
連
進
遊
運
過
道
達
違
遞
遠
適
選
還
邊
那
部
都
鄉
鄭
釋
重
量
金
錄
錢
錯
鏈
鐘
長
长
門
開
間
閣
關
防
阿
降
限
院
除
陳
陸
陽
隊
隔
際
隨
雄
集
雖
雙
離
難
雲
電
需
震
露
青
非
面
音
響
頁
項
順
須
預
領
頭
頻
題
願
類
顧
風
食
養
館
首
香
馬
駕
駭
驗
體
高
魯
鳳
麗
麼
黃
黑
點
黨
🔒
the
that
to
of
it
and
is
in
you
we
this
for
they
people
have
on
are
can
or
not
with
as
there
just
but
like
so
##s
what
be
if
about
do
very
re
because
think
also
all
one
taiwan
was
more
then
from
at
their
which
by
how
don
other
really
will
when
who
your
our
social
actually
would
my
time
see
say
an
now
work
way
right
government
things
some
laughs
something
know
them
no
get
into
has
lot
data
make
these
yeah
here
different
out
public
want
any
much
me
##ing
where
open
even
good
only
course
first
use
part
kind
those
example
two
well
new
thing
going
up
same
maybe
##ed
digital
idea
go
many
sure
us
need
still
ve
than
around
were
each
working
##d
years
year
system
been
could
doing
did
everybody
minister
through
every
talk
yes
most
after
technology
take
back
innovation
internet
before
being
already
world
##ly
basically
saying
said
doesn
media
society
had
called
exactly
why
ok
three
look
ministry
he
community
democracy
ll
whatever
important
call
question
sector
using
national
own
always
let
may
great
point
day
feel
interesting
thank
process
should
between
service
next
making
instead
law
change
sense
start
anything
bit
over
case
better
such
without
come
together
platform
does
understand
fact
used
co
level
ask
little
quite
another
end
local
based
real
information
again
help
conversation
design
means
too
ideas
pretty
everything
##er
disinformation
find
whether
mean
space
problem
few
trying
place
its
10
both
long
civil
share
five
talking
having
online
put
give
g0v
within
human
main
culture
trust
become
issues
ministries
##e
last
done
office
person
project
second
got
ai
she
movement
makes
source
says
try
free
experience
mask
consensus
face
old
##t
political
days
common
thinking
oh
election
less
##a
policy
company
particular
rather
##al
civic
city
down
questions
issue
set
participation
least
looking
##y
high
software
private
care
education
team
taiwanese
power
##n
during
didn
cannot
percent
countries
international
meeting
code
state
governance
learn
terms
made
presidential
four
mostly
model
once
join
tech
##r
build
probably
transparency
started
live
website
facebook
development
side
while
able
agree
companies
am
line
anyone
show
run
read
whole
works
especially
000
citizens
getting
large
future
name
mentioned
20
learning
technologies
else
number
value
meaning
health
seen
ways
language
itself
ago
must
possible
english
interested
usually
gets
network
far
vtaiwan
building
country
##able
##o
group
never
president
top
best
parliament
bring
literally
agenda
taipei
young
big
access
keep
##es
china
budget
school
lab
business
party
early
essentially
sometimes
uber
went
million
money
months
tell
across
hackathon
send
role
voting
discussion
freedom
anyway
asia
happen
might
moment
publish
administration
word
cabinet
non
places
term
week
speak
projects
cases
create
plan
taking
true
communication
news
petition
worked
google
general
vote
mind
norm
meet
against
someone
themselves
comes
economy
participate
though
##ers
almost
fine
check
view
came
regulation
support
personal
research
form
cross
occupy
relationship
needs
today
couple
message
hand
half
tw
focus
goes
self
goals
##ation
away
prc
job
act
similar
thought
##ity
everyone
tools
##l
foreign
specific
values
happy
stuff
##i
guess
either
impact
privacy
machine
chinese
small
his
12
useful
yet
answer
coming
fun
easy
meetings
radical
traditional
audrey
hours
campaign
sharing
under
entire
democratic
existing
hear
off
groups
stakeholders
global
month
indigenous
room
certain
quickly
her
video
science
transparent
phone
takes
post
risk
sustainable
citizen
council
including
sort
definitely
previous
setting
web
card
##ion
matter
quality
enough
friends
minutes
speaking
email
intelligence
involved
scale
##ic
basic
obviously
collaborative
medical
control
single
asking
wouldn
speech
generation
remember
wanted
talked
transcript
easily
systems
center
checking
easier
asked
personally
sandbox
otherwise
words
happening
reality
security
write
difficult
legal
gender
running
rights
##ize
##ized
since
starting
map
often
servants
##ive
full
life
market
shared
times
approach
nobody
hard
hour
##m
weeks
pol
masks
topic
journalists
nothing
core
currently
##c
seeing
valley
hong
kong
paper
interest
stage
various
context
sorry
environment
order
understanding
water
seems
ones
creative
gov
ministers
collaboration
population
certainly
feelings
past
silicon
parts
spread
provide
six
career
premier
found
##k
##on
computer
anymore
heard
air
current
forward
legitimacy
move
students
japan
learned
solve
##an
points
related
position
##ment
agency
outside
reason
sunflower
took
curriculum
regulations
politics
love
virtual
30
report
beginning
clear
deliberation
environmental
laws
app
governments
picture
response
shows
street
version
forum
happens
stakeholder
designed
professional
won
participatory
popular
decision
referendum
twitter
central
happened
strong
somebody
15
communities
enterprise
until
program
cool
credit
pay
completely
100
bad
choose
listen
becomes
changed
link
turn
zero
board
home
knowledge
organization
aware
myself
simple
university
previously
willing
area
economic
per
original
pandemic
published
trade
broadband
individual
physical
wrong
##p
cost
##en
##u
accountability
jurisdictions
purpose
believe
whenever
built
later
charge
problems
situation
third
effect
organizations
infrastructure
press
teams
##ting
reach
##rs
collective
counter
difference
multi
yourself
independent
necessarily
numbers
story
key
direction
foundation
license
saw
solution
action
services
innovations
industry
content
nowadays
perspective
structure
##ism
directly
record
tsai
cultural
driving
explain
longer
contribute
hold
languages
mandarin
taxi
##in
##ate
##or
debate
representative
tax
user
seven
food
connection
startup
conference
contact
##le
strategy
creation
spend
age
haven
mechanism
nice
quarantine
simply
goal
looks
energy
sars
connect
ecosystem
feeling
play
areas
fair
regulatory
youth
generally
hope
benefit
entirely
##th
2014
amount
covid
##ally
##ist
api
follow
rumor
joined
larger
became
experiment
huge
sounds
vision
major
translation
wrote
domain
platforms
00
close
listening
natural
##nt
add
smart
##h
given
##0
met
cyber
eventually
journalism
training
challenge
fake
germany
specifically
type
uk
direct
engagement
field
indeed
interview
mobile
spam
translate
account
partnership
##est
reverse
buy
##ry
actual
cybersecurity
identity
rough
definition
sides
##ness
children
conversations
head
members
solutions
behind
states
procurement
special
wear
cities
him
art
awesome
##us
book
engage
history
pdis
totally
consultation
ever
fashion
short
hands
toward
finally
pre
attention
recording
topics
##ization
association
created
particularly
literacy
tool
wide
higher
perhaps
voice
commons
knows
soon
active
climate
resources
although
improve
thousands
constitutional
identify
stay
anywhere
europe
family
marriage
14
##ating
algorithm
parties
standard
##ary
##ies
distributed
introduce
page
policies
recently
mission
compared
material
norms
along
analysis
innovative
island
wow
event
screen
develop
sdgs
##f
17
among
curious
facts
wednesday
messages
respond
##g
hardware
technical
imagine
taken
told
unique
dr
sdg
insurance
users
creating
elections
isn
please
visit
correct
decide
figure
invite
primary
protection
regional
tang
viral
allow
left
lots
opportunity
parents
channel
game
agreed
chat
positions
stop
apply
crowd
track
funding
step
##izing
fast
others
propose
limited
##ts
giving
initial
offer
wasn
##less
journalist
martial
travel
break
perfect
sectors
sent
changing
eight
yuan
##ia
bot
effective
officers
product
reading
text
gives
written
funny
guys
hacker
horizontal
however
official
region
upon
click
equality
thoughts
anarchist
clarification
drivers
talks
developed
ourselves
prime
transformation
virus
brought
continue
deal
mps
result
##te
amazing
connected
surveillance
tend
##ar
##ian
50
department
sign
further
normal
piece
##tion
background
feels
cultures
friend
profit
touch
united
zealand
clearly
internal
cecc
rural
theory
blockchain
encourage
reply
south
affairs
force
hackers
helps
misinformation
thanks
plastic
protest
white
consider
filing
investment
vr
creates
enjoy
finance
interaction
voluntary
changes
focused
portfolio
##it
enter
invited
whereas
##ial
address
format
humor
innovators
application
concerns
practice
rules
showing
##ent
##ping
effort
hundreds
jurisdiction
somehow
un
wondering
##nce
available
enable
experts
french
inclusive
protect
schools
writing
##st
##x
chain
known
majority
programs
rumors
agreement
front
search
##ling
leave
positive
statement
successful
younger
labor
participating
requires
teachers
##ance
collect
decided
divisive
random
rule
decisions
discover
generations
mayor
nature
##se
accountable
input
16
hospital
member
ministerial
beyond
domestic
islands
police
anti
nearby
ngos
publicly
convince
examples
living
putting
automatically
concept
conservative
green
period
speed
turns
40
absolutely
anybody
defense
gdpr
supply
town
allows
convenience
pacific
passed
startups
versus
choice
comment
deliver
entrepreneurs
industrial
nine
opinion
prefer
publishing
sustainability
tried
wants
##b
advertisement
authoritarian
ledger
management
programming
staff
unless
discovered
enables
exchange
held
moving
review
subject
welfare
##age
##ful
challenges
chance
class
fear
helped
impossible
outrage
pass
petitions
sufficient
##ch
##ted
asian
branch
fund
include
promise
spaces
websites
contribution
copyright
elderly
france
pro
radically
senior
teach
york
initiative
kinds
likely
occupied
potential
##ors
lead
legislation
method
nation
remote
skills
student
agencies
constitution
court
enterprises
narrative
translated
##ve
earlier
hmm
singapore
##istic
bringing
engineering
experiences
helping
implement
iot
low
truly
safe
success
super
##id
older
wait
##ities
apple
becoming
canada
capital
comments
copy
default
proposed
fit
inclusion
needed
##ated
##ous
description
products
servant
towards
walk
body
bunch
describe
everywhere
introduced
mm
partners
basis
list
alternative
audience
button
grow
liberal
lower
planning
request
serve
stream
deep
helpful
spreading
talent
test
zone
##ical
5g
democracies
photo
tradition
votes
watch
youtube
argument
developing
dog
immediately
instance
negative
none
production
quick
style
diversity
entrepreneurship
lack
officer
respect
starts
statements
##is
joining
materials
site
trophy
bye
expect
store
wonder
##ant
korea
lines
plenty
usual
vehicles
##ng
##ual
60
american
binding
efforts
nations
partner
reasons
summit
closely
critical
facing
policymaking
receive
rest
somewhere
##ure
car
communicate
experiments
pictures
table
dedicated
demonstration
discussions
feedback
middle
pharmacies
solidarity
win
worry
##5
##red
cause
designers
distance
focusing
measures
models
ptt
runs
supporting
ahead
awareness
considered
informed
japanese
multiple
somewhat
##ding
assistive
box
devices
german
measure
micro
women
automated
command
complete
demand
fully
municipal
pm
produce
recent
require
visited
##ify
hair
image
increase
influence
present
processes
testing
welcome
worth
##ble
##w
attack
colleagues
committee
elected
ground
hey
led
municipalities
night
ready
section
seem
##um
balance
collaborate
coronavirus
lost
movements
po
smaller
contributions
excellent
fork
gone
kaohsiung
morning
push
sources
workshops
academic
according
afterwards
artificial
assembly
depends
ensure
ndc
pressure
##re
begin
donation
executive
final
gave
hat
legislative
separate
several
study
200
behavior
disagree
due
european
finding
honest
inside
journalistic
polis
presentation
realize
trending
crisis
daily
fintech
github
neutral
required
##at
##il
##ious
##ke
##sing
4g
cycle
paid
technological
therefore
wearing
workers
yesterday
##os
activities
capacity
degree
dialogue
driver
interests
leading
methodology
pollution
reporting
views
##ue
bank
brings
define
deliberate
device
familiar
financial
growing
hall
relevant
stock
##2
addition
alone
channels
interactive
justice
philosophy
progress
referenda
streaming
director
emerging
providing
rely
republic
responsibility
unlike
##ability
##ring
bandwidth
beings
born
competition
notice
operating
opinions
resource
wikipedia
bill
dictionary
folks
harm
institutional
mentor
participants
wen
answers
applications
chair
collection
demo
following
frame
microsoft
near
prototype
pick
possibility
results
##ne
airbnb
events
expert
institutions
park
powerful
protocol
rate
return
road
tour
##7
##ative
##ied
##ns
cofacts
deliberative
meme
organize
quadratic
showed
##ists
aspect
lose
mainstream
minute
spent
telling
##ll
avatar
cars
comfortable
initially
innovate
principle
removed
workshop
##ging
appreciate
de
late
participated
peer
quarter
raw
stories
trend
above
accept
collectively
connections
framework
levels
physically
propaganda
proposal
##ce
bottom
discuss
machines
paying
potentially
reports
18
22
connecting
extra
flow
healthcare
light
shape
signal
##9
##ay
apps
autonomous
beijing
plus
reduce
visualization
components
details
document
implemented
location
purely
solved
transgender
##et
##ty
chen
drive
epidemic
evidence
fantastic
interviews
knowing
largest
raise
forms
millions
notes
voluntarily
##ably
child
families
land
mail
mainland
operation
promote
representatives
sound
waste
19
advice
false
networks
seconds
tracing
wall
##up
24
buying
censorship
database
manage
names
papers
red
reform
spirit
##1
candidates
edit
engaging
felt
intentional
leaders
sometime
standards
title
universal
##as
2015
23
calls
checked
discourse
enabled
established
everyday
expensive
gradually
id
jaclyn
junior
series
sms
vice
##ire
##ish
algorithms
institution
interior
politicians
structured
supported
trolls
watching
##ct
distribution
draft
dynamic
except
flag
forth
hackathons
initiatives
naturally
principles
professor
solving
straws
transcultural
wonderful
##line
##me
binary
concrete
condition
defined
described
index
ops
spending
threat
turned
bridge
closed
crowdfunding
faster
fellow
gathering
paris
posted
raised
sending
statistics
base
fight
individuals
pharmacy
playing
tainan
##ward
argue
east
implementation
ing
interpretation
invented
keeping
movie
necessary
sell
serious
sorts
builds
cute
etc
hopefully
music
nevertheless
opening
package
scientific
uses
vertical
##ence
allowed
campaigns
compare
computers
diverse
dollars
download
importance
methods
quote
sectoral
slide
suddenly
tv
accounts
availability
award
computing
concern
costs
designer
earth
fascinating
pilot
switch
##6
##les
##ped
##ps
ait
amplify
couldn
era
hi
includes
mandate
mozilla
sets
tomorrow
weekly
##hip
##v
80
adopt
approval
beautiful
carry
checkers
date
friendly
hearing
ict
managed
plans
##tive
##ving
academia
administrative
conditions
crowdsourced
growth
independence
interface
january
mechanisms
mentors
military
missing
museum
plurality
regular
responsible
secure
transportation
##ics
2016
article
authority
contributed
corporation
delivery
expertise
function
house
op
opposite
organized
records
secret
universities
angle
camera
circular
driven
eyes
forums
measurement
moved
save
teaching
ultimately
##ations
##de
##ulate
activists
broad
carbon
closer
introducing
nhi
perl
relationships
station
transition
candidate
draw
encrypted
equal
expand
incentive
leadership
prove
radio
wise
##ds
##land
##out
32
99
advanced
gap
inspired
lockdown
robot
session
skill
worried
average
commercial
ends
hacking
legislators
march
meaningful
originally
purposes
register
scaling
scientists
calling
chang
diplomacy
eye
occupiers
officials
operate
projector
stores
##ments
##rate
cheers
crowdsourcing
harder
internationally
leader
medium
mention
mode
opportunities
orders
phones
provides
registration
stand
teacher
understood
voted
##3
##ates
adopted
applied
books
budgeting
collecting
competence
grade
holding
org
priority
11
advertisements
edge
file
guy
path
polity
rationing
thinks
total
truth
##ible
##led
actors
cut
links
maintain
mountain
regardless
resistance
suggestions
switzerland
##ified
absorb
actively
additional
america
attribution
component
decade
diamond
differently
essential
eu
humans
layer
mutual
parliamentary
relatively
release
researchers
shouldn
technically
telecom
uberx
unit
##8
##cing
arguments
centers
dashboard
designing
fighting
firewall
hello
lives
ngo
sleep
strictly
waiting
##rating
##ter
achieve
brain
characters
committed
controversial
empower
exciting
facilitator
gather
hub
inaudible
joint
latest
madrid
ongoing
recorded
sandstorm
war
wish
##el
accessible
actions
attacks
attend
berlin
bits
doubt
ethereum
explore
export
expression
extended
forces
handle
hashtag
items
looked
makers
offices
revolution
roll
sit
##ine
##ration
##way
coding
differences
dot
engineers
establish
exist
facilitate
favorite
fixed
hundred
install
lived
panic
slides
threshold
traditionally
union
##ries
afraid
ah
black
browser
consumer
determine
documents
extent
film
locally
obvious
passengers
representation
supposed
trusting
##dy
##ute
bigger
bubble
empathy
excited
fault
kept
leads
municipality
seriously
television
##ls
##ms
##point
##ss
35
april
classes
corporate
cyberspace
integrate
jobs
object
phase
provided
ups
voices
ability
anger
cards
count
fence
fix
formed
london
opposed
oriented
print
property
proposals
roughly
size
status
thailand
vendors
western
wisdom
##ie
##tic
##to
benefits
efficient
electronic
equally
feed
friday
games
host
limit
root
sentiment
##one
abstract
capitalism
considering
contract
double
highest
institute
landscape
massive
meant
memes
mindset
partnerships
recognition
sponsored
transcripts
##ver
africa
anonymous
aspects
bilingual
block
engaged
equivalent
experimental
fields
fly
ocean
practices
precisely
recognize
represent
safety
slack
upload
1996
activity
adapt
assessment
audit
century
cheap
compatible
contributing
cover
earthquake
elsewhere
enabling
factor
fundamental
heart
income
infodemic
note
principal
semi
spectrum
strait
taoyuan
tension
types
##ifies
##ings
##ming
##ned
conspiracy
fourth
investors
october
offering
partisan
played
proof
received
resolution
revitalization
sitting
slido
streamed
target
vendor
##ard
##ile
##q
##sh
biggest
cloud
concerned
donations
guaranteed
hack
hit
integration
interact
mayors
notion
poem
price
sovereign
task
technologists
##na
##ular
500
analyze
clarifications
damage
delegate
estonia
experimentation
extremely
facto
industries
journey
offline
precision
proposing
recommend
ride
uncertainty
##am
##med
##nd
brand
commitment
compete
depending
discussed
feature
india
investigative
junk
kids
likes
loud
matters
optimistic
panel
singularity
spoke
suggest
tackle
treat
##4
##ged
##lab
##ta
apart
aside
counterparts
detect
door
fail
gold
habit
linux
manufacturing
marketing
metaphor
minority
outcome
refer
requirement
shadow
signatures
visiting
##ning
##work
90
affect
apis
authoritarianism
chose
com
cssta
cutting
declare
detail
doctor
howard
imagination
keeps
mapping
politically
progressive
properly
reddit
schedule
slow
stations
survey
taught
visitors
volunteer
##der
##ill
##ions
##ot
##un
airbox
architecture
donate
fire
merge
monitor
slightly
strongly
train
troll
##ier
25
anarchism
balanced
businesses
capability
criteria
dark
disaster
district
epidemiology
memory
modern
objective
proper
reliable
scene
surface
valuable
visual
##ened
##ite
auditing
barcelona
broadly
collected
communications
converge
csr
decentralized
developers
emergent
ideological
knew
nor
recognized
ruling
se
shift
talents
transfer
tuesday
vaccine
videos
##ge
##king
##ology
aren
bots
branding
complex
deputy
directions
editing
globally
introduction
kmt
labs
lunch
mainly
megabits
societal
taichung
winning
##ach
##ft
##ification
##ining
affected
blame
blue
complicated
convincing
corporations
dialog
doctors
equipment
express
fall
fill
integrated
jury
lets
pink
pos
produced
reached
signed
##ncy
300
assume
brilliant
chi
controlled
crowdsource
highly
increasing
jump
ledgers
library
mobilize
mountains
native
overview
owned
pushing
referring
sinica
tells
visible
##oo
##rt
ban
bureaucracy
capture
coverage
covered
dinner
founded
gain
mine
noticed
prevent
profile
speakers
streets
whatsapp
wuhan
##ck
##sion
aligned
associations
borders
chief
clean
collaboratively
consent
cooperation
demands
fishing
north
ogp
planet
poetry
prepare
regard
significant
suffer
targeting
tea
throughout
vehicle
venue
##ao
##end
##im
##z
affects
dealing
emergency
engine
entity
evening
forking
founder
funded
himself
internally
ish
methodologies
mid
mix
multilateral
overall
prize
pure
rare
realized
rolling
sport
sum
transport
url
vulnerable
##ising
##ung
2003
annual
applies
artists
capable
cares
commit
coordinated
deploy
diplomatic
elements
entrepreneur
february
ietf
judicial
meters
monday
normally
powers
practical
reflect
regarding
server
strike
suggestion
theme
tissue
tourism
wake
wider
##des
##ou
broadcast
coalition
college
entities
facilitation
forget
frankly
grant
implementing
instant
legitimate
li
organizing
pages
politician
protecting
pull
qr
responses
rolled
san
scenario
sex
sites
societies
steps
studies
suffering
tfcc
trip
wu
##ise
agrees
australia
blog
charities
decades
deeply
despite
digitally
discord
gdp
healthy
illegal
invitation
marine
memetic
mental
multistakeholder
performance
powered
promoting
reasonable
round
sea
sensors
september
straight
taxis
tokyo
trained
wash
worse
##board
##oral
##pe
##tions
##uting
2020
70
accurate
archive
automation
ballot
breaking
budgets
connectivity
customer
defining
drop
empowering
fits
freedoms
hotel
leaving
linear
mobility
output
primarily
walls
worldwide
##ator
##co
##ler
##ol
##rd
2030
centralized
computational
county
customers
discussing
dpa
dropped
educational
engineer
explicitly
female
flying
forming
han
mayoral
moves
negotiation
neighbors
parade
providers
rapid
resonate
seeking
skype
trusted
##da
##late
##ow
##tes
accepted
afternoon
altogether
arts
bitcoin
conflict
constructive
criminal
distancing
dpp
expense
facilitators
floor
ideologies
improvement
maps
minded
onto
referendums
registered
rental
scratch
serves
surprised
systemic
west
##bly
##izes
##ri
##ric
##ro
96
academy
advantage
agriculture
appear
avoid
briefly
bureau
cell
color
construction
divide
ended
explaining
generate
hate
included
letter
precise
recommendations
relying
remain
representing
sandboxes
scan
sentence
structures
widely
ad
appropriate
bound
broken
exercise
external
forced
generational
harmful
highlight
identified
interns
json
largely
mass
narratives
payment
phd
portal
prepared
selling
su
telecoms
telepresence
transform
##box
##cy
##lay
##phone
##ures
360
added
adult
angry
authentic
brief
character
concepts
countering
elders
empowerment
famous
formal
goods
hoping
ip
lin
motivation
opened
pieces
possibilities
presence
purview
raising
sees
spreadsheet
targets
toronto
traditions
triple
woman
##ip
##ium
##ively
##ons
##sm
##ulating
##ution
2018
acts
alternate
animal
camps
canadian
cognitive
consultations
december
effectively
excuse
iceland
insight
intervention
judge
markets
players
thesis
unfortunately
wherever
##cted
##ma
##ory
##ying
apparatus
bought
broader
charity
coffee
configuration
constantly
correctly
dangerous
drafting
ethics
explained
freely
governmental
iii
improving
inform
ipad
listed
moe
november
ordinary
producing
randomly
relations
replace
river
silos
slowly
teleworking
tricycles
turning
##net
##ny
##ra
##wa
abroad
acting
advisory
beneficial
branches
choices
commission
connects
creators
departments
encouraging
entered
hakka
ibm
intention
linked
log
mathematics
moea
net
personnel
radicalxchange
relation
stake
theories
transmission
watched
wifi
##ield
##ily
##ique
autonomy
commands
debates
determined
functions
historical
limits
miss
mit
monthly
nuanced
podcast
pride
priorities
protected
psychological
regime
shares
simon
sphere
suppose
##ab
##ap
##go
##ore
##ulated
advance
attract
bills
blah
busy
crazy
democratization
effects
emphasize
extend
images
incentives
loss
mac
mobilization
openness
perspectives
professors
regulate
roles
rooms
select
star
telecommunication
telemedicine
thousand
tracking
translating
tribe
urban
visa
volunteers
windows
##ad
##ening
##ivity
##lation
##rain
##uit
advocate
announcement
category
ceo
claim
clause
comparison
complain
continuous
deliberations
deployed
display
expanding
extension
fairly
fiction
framing
gps
ideal
impression
independently
june
logo
negotiate
options
petitioners
pitch
plant
pleasure
protesting
repeat
responding
scope
shaped
signature
strategies
stronger
timeline
twice
viewpoint
weibo
weird
yu
adding
associated
boy
brainstorm
brainstorming
circle
designs
developer
earn
emphasis
failure
importantly
incredible
invest
involve
messaging
mofa
novel
opposition
overseas
ownership
parks
pattern
printed
processing
protests
proud
ran
reminds
resonates
secretary
solves
strict
underlying
unions
violent
wind
##case
##ess
##pose
13
attended
buildings
finished
fleet
grew
guarantee
hierarchical
hot
ic
intellectual
italy
legislature
lobbying
meter
overlapping
permission
photos
pillars
rational
reported
saves
schema
spokesperson
takedown
theoretically
tiananmen
virtually
wave
65
activist
animals
answered
asks
augmented
caring
challenging
compromise
conferences
geography
grants
hengchun
insights
inspiration
inviting
item
july
laundering
learns
male
patterns
polarization
producers
protects
react
remind
route
solar
strange
sun
taiwancanhelp
umbrella
##ient
##ifying
##igation
##lance
##mit
##ological
##ose
##read
##tain
##uted
##word
align
allocate
below
boxes
catch
column
confirmed
coordination
dad
deeper
deliberated
dimensional
dogs
factual
founders
funds
governing
hire
impressive
lens
lessons
lifted
measuring
merged
populism
queuing
reinforce
released
socially
stands
strength
traveling
treatment
trump
update
##ca
##cs
##ition
##mp
##ner
##ray
##rge
##ship
##uity
##vision
adequacy
agile
announced
approaches
associate
clarify
closest
clusters
commerce
consultant
david
delegates
disease
expectations
explanation
flower
glad
horizon
immersive
magazine
mp
ncc
nowhere
petitioned
projection
proprietary
range
readable
reflective
saving
soft
stages
studying
targeted
themself
via
yours
##down
##ens
##list
##lt
##rian
##ves
3d
advocacy
alliance
cameras
competitive
convinced
credibility
dc
editor
encryption
genuinely
grassroots
greater
helicopters
inter
joy
legacy
leverage
operators
percentage
polarized
promised
puts
relate
reveal
speaks
tao
tens
tested
understudy
viable
wenliang
##ang
##ball
##ell
##ians
##ically
##ide
##ited
##ival
##ock
##oot
##ories
##ral
##rated
##room
##ses
##son
##ulation
2017
academics
banking
blind
caused
confidential
constitutionally
continental
cryptocurrency
deliberating
drink
educated
electricity
empowered
factors
figuring
gctf
girls
hanging
intentionally
invent
legally
maori
nuclear
option
organizers
palace
pdf
perfectly
perming
petitioner
petitioning
pipeline
reaches
remains
scalable
sentiments
spoken
stopped
structural
techniques
township
traffic
unlimited
##act
##ans
##ep
##erative
##pt
##tor
##ured
##yer
accessibility
adopting
aim
amis
applying
bilateral
border
chatbot
civicus
colleague
confidence
covers
developments
digi
eager
emotional
financing
finish
fundamentally
hasn
heavy
iteration
kitchen
laptop
legislator
manner
mark
offered
operations
presented
relinquish
reward
score
secrets
shopping
stable
summary
tank
tzu
visibility
window
##iness
##logical
##mark
##set
##tors
169
1922
90s
airport
beat
captured
categories
classical
cofact
curiosity
declared
disclose
element
entry
expectation
flip
fortunate
hashtags
influenced
interactions
involves
korean
layers
licenses
maker
minds
neither
opt
organizational
penetration
plays
prevention
proactive
recovery
reducing
represents
reset
resident
spain
successfully
symptoms
taxation
updated
upset
usage
winners
worrying
##bs
##gation
##la
##logy
##man
##ncies
##sist
##ster
##ten
##ture
##vent
affordable
afterward
aggregate
amplified
analytics
artist
assistance
bias
bluetooth
boundaries
burden
camp
carries
competency
competing
congress
consistent
corrective
counting
creativity
dimensions
fleets
flexible
graduate
hybrid
impressed
incoming
indonesia
initiated
invention
launch
letting
lifting
lock
nt
packages
participant
pertaining
posts
quit
rating
rice
sanction
socialtext
split
territory
textbook
versed
weather
workflow
##ai
##ancing
##aries
##ger
##han
##oc
##rants
##rap
##rupt
##tation
##ug
2012
2013
audio
automate
banned
caught
con
concerning
constant
consumers
danger
dedicate
emotions
entering
federal
hospitals
ideology
inoculation
interpretations
launched
match
motivated
noise
objects
partly
posting
qv
rank
rise
soap
square
whichever
##ants
##ered
##ese
##ford
##ky
##orn
##suing
##une
##val
algorithmic
answering
began
broadcasting
cat
clinic
cluster
conduct
consulting
counterpart
describing
digitalization
dignity
distinction
duty
emails
emotion
exclusive
experienced
factcheck
heads
housing
indoor
involvement
magic
mainstreaming
math
motc
opens
parallel
philosophical
protocols
rails
renewable
sales
sanitation
sayit
shortage
signals
sovereignty
sow
synthetic
ted
trail
trans
treated
tries
typical
vaccines
vicinity
voters
zoom
##acy
##aking
##cent
##ees
##ency
##ents
##graphic
##ki
##oking
##sed
##sive
##verse
##wn
2004
98
aging
agricultural
alternatives
ambassador
arm
assistant
charged
ching
ci
combination
contributors
creator
distribute
emerge
evolve
father
firm
generated
grows
herself
identification
judgment
lobbyists
logic
mentioning
mistake
mistakes
moderator
opposing
patients
preferred
publication
reaching
recommendation
regularly
retired
scientist
seat
semiconductor
serving
sessions
shiba
shut
stack
substantial
timely
versions
wanting
yellow
##ain
##ha
##her
##inate
##iny
##ius
##ocation
##rn
2000
400
accepting
adjust
adults
aid
allocated
allowing
antisocial
applicable
asset
attitude
banning
certificate
choosing
collaboratives
detection
dimension
drones
efficiency
expected
explains
facilitating
favor
hip
hosted
hr
increased
lawyers
operator
plants
policymakers
recruit
relies
residents
selected
siri
spot
spreads
strangers
straw
summon
ticket
ties
trends
typing
violence
vitalik
##ads
##bound
##cal
##ceed
##ee
##ering
##fc
##force
##iary
##off
##place
##sions
##ural
##uring
2019
alignment
ar
army
articles
awards
behave
billion
california
calm
cohack
commentary
comparable
constituents
coordinate
corner
encouraged
evolution
handing
handled
honor
humanity
inspiring
judges
kpis
linking
mature
missions
necessity
offers
organizer
permanent
picked
pointing
preparing
promises
proven
purchase
puzzle
redesign
refused
resilient
screens
spokesdog
sponsor
subjects
submit
syndrome
taxes
telegram
unwashed
walking
wellington
zones
##asing
##by
##ely
##lin
##ood
##uation
##ust
actor
carrying
collaborations
combine
communicating
communist
computation
delivered
deployment
dial
dozen
duties
easiest
exhibition
extreme
flood
folder
graph
guidelines
height
holds
hurt
incorporate
joel
nonprofit
pain
pair
poems
quantitative
refuse
regulators
relative
robots
sensitive
shown
speeches
upcoming
virality
vis
warning
winner
worker
##ama
##anding
##atic
##cer
##cycle
##making
##res
##standing
##using
##ware
##while
80s
absolute
african
allies
analogy
approved
arrived
august
breaks
cc
chapter
civics
consuming
demonstrate
examination
exporting
expressions
facilitated
followed
fresh
grand
grateful
intergenerational
la
laugh
livestream
losing
man
metrics
obsolete
perception
planned
playbook
poetic
poetician
predict
pricing
programmers
readers
receiving
recursive
remix
reuse
rivers
scholars
season
sensor
shaping
shu
si
southeast
summer
supporters
tied
units
venture
youtubers
##atory
##ax
##ction
##ka
##laws
##nds
##ntly
##nts
##per
##rew
##ried
##servation
##uo
##wards
afford
attached
bar
behalf
belong
beta
capstone
cats
chuan
collaborating
consult
contemporary
counts
currency
disclosure
dollar
drawing
embassy
encounter
ensuring
epa
exposed
fellows
firsthand
flagging
forever
heavily
household
humorous
ignore
leakage
lifelong
liked
logistics
maintained
master
meta
mixed
mom
olds
openapi
origin
paint
passing
pharmacists
pool
prosper
puberty
reaction
requirements
reuters
rich
sample
speaker
standardized
surgery
trace
whose
##are
##con
##gh
##graphy
##iang
##iate
##icious
##load
##map
##rick
##sign
##tch
##time
##ucky
##use
1st
95
activism
batch
battery
blocks
booth
boston
capabilities
continuing
cooperative
crucial
deciding
dictatorship
discrimination
enjoying
exists
factory
fifth
files
firefox
flowers
forcing
fulfill
god
helicopter
hired
hobby
holistic
ideation
immediate
incredibly
institutionalized
integrity
leaking
loomio
mouth
movies
observed
offshore
outbreak
practically
presenting
promotion
protesters
reference
resolved
reykjavik
seats
sold
spamhaus
studied
supreme
systematically
telephone
themes
tower
tracks
trusts
understandable
upper
vocabulary
wars
whereabouts
worlds
##ets
##ey
##hic
##ication
##ice
##ight
##itarian
##mb
##ook
##ost
##pa
##rp
##serve
##ulous
##vised
##vy
##ways
##yc
apparently
arrive
assuming
austronesian
automatic
circles
counties
dominate
dynamics
fabric
firmly
foster
functional
glass
increasingly
infrastructures
instrumental
leak
lee
lists
managing
manipulation
massively
observation
officially
oslo
overlap
passport
paste
promoted
qualify
realm
relational
represented
resilience
rhetoric
stick
stuck
suggested
switched
translator
ultimate
voter
##ading
##ators
##cks
##ection
##front
##iating
##mers
##mination
##nding
##op
##our
##struct
##ui
##unt
##utes
##ze
37
adoption
amazon
analog
asvda
attempts
author
authorities
blocking
bulletin
cash
causes
cc0
cdc
censor
clinics
coalitions
coherent
coin
colors
comic
databases
delivering
dependent
divided
elaborate
embrace
encountered
existential
fang
hackpad
halls
immigration
interestingly
intermediary
label
lawmakers
leaves
length
listened
lottery
machinery
mandatory
michael
moderation
openly
organic
philippines
pop
possibly
reasonably
respectively
seattle
shuyang
similarly
spanish
strategic
swipe
warnings
##ace
##away
##bling
##encing
##etic
##fully
##gram
##here
##iety
##ipe
##ivate
##ix
##ox
##print
##rant
##rive
##ruption
##uate
##ude
##unded
abuse
addiction
advocating
amateur
anytime
appeal
arguing
atmosphere
boards
cap
carefully
champions
chances
chart
cheng
circulation
continued
contracts
death
discipline
employees
enhancing
establishing
evolving
experimenting
externalities
gaming
gift
hang
injustice
intranet
investing
javascript
joke
liberty
measurements
okay
pipes
plate
pr
preserving
pressing
proxy
queue
reinforcing
sends
shorter
species
stimulus
survive
sv
tackling
technologist
throw
toxic
translations
trial
usr
visits
##back
##eter
##fect
##fold
##gger
##gible
##iles
##itative
##ml
##ole
##po
##rance
##rators
##ringe
##sidency
##tin
##ur
##words
2021
acceptable
addresses
announce
anonymity
anticipate
attractive
banks
bodies
cheaper
chiang
clarified
comprehensive
convenient
convert
defines
denmark
disappear
dispatch
donating
drill
empathize
employment
empty
enemies
equipped
excluded
exclusively
exploring
feasible
fiber
founding
gds
hangzhou
impacted
infiltration
innovator
inu
lands
lesson
loop
measured
mentorship
metadata
mother
mr
narrow
operates
partnering
pasted
paul
perceive
persons
physics
pirate
placed
prediction
premise
promising
quarantining
reflects
relax
remaining
returning
risks
russia
sad
sake
seed
sophisticated
sourced
spiritual
staying
struggling
surprising
surprisingly
tallying
tremendous
trolling
typhoon
untruth
upgrade
venues
weren
workplace
##cinated
##cious
##ded
##den
##eric
##ibility
##ience
##ines
##ir
##itive
##oon
##over
##scape
##tory
##yu
alongside
arrangement
ballots
boring
capitalist
commitments
complementary
conscious
contain
disabilities
dream
evolved
exact
existence
explosively
facilities
features
flight
foreigners
frequently
honestly
humanitarian
identifying
improved
inauguration
increases
indo
interacting
interviewed
jade
kuo
lai
leaderless
limitation
maintaining
medicine
multinational
mutually
named
newer
operational
optimism
ourself
outcomes
oversight
phenomenon
programmer
reduction
reflection
regions
replaced
requests
salary
saturday
sim
snowden
stickers
stress
struggle
swiss
threats
tweet
verify
vibrant
washing
xrspace
##ado
##ail
##clude
##cludes
##dance
##dic
##els
##finite
##hot
##ibly
##ig
##igate
##ked
##lies
##lowing
##oe
##olate
##que
##quent
##right
##scription
##tter
##turing
##ups
##used
##ynchronous
anarchistic
angles
bid
bulk
cambridge
ccp
charging
checks
complained
consciousness
consultative
crypto
defend
discovery
elect
electric
endeavors
enforcement
ethnic
evaluate
failed
farming
gay
glasses
govtech
grandparents
guide
hubs
identities
imagined
individually
insist
installed
investor
java
keyboard
labeling
lifetime
mathematical
mirror
modify
oil
pays
peoples
phrase
preference
prosocial
resolve
scheme
sciences
spare
synergy
systemically
transitional
trivial
vaccination
weekend
whatsoever
worldview
yearly
##ague
##ake
##all
##ape
##book
##cles
##coming
##crats
##ect
##fer
##frame
##ional
##nary
##om
##osis
##phones
##power
##rained
##related
##signed
##sts
##sume
##tains
##uck
##uel
##vise
accelerator
ads
appears
approve
assets
attempt
biased
biodiversity
careful
centered
chairs
civilization
coded
cohort
combined
compact
courses
csv
decoy
depth
detailed
difficulties
dominant
economies
faced
fails
faith
fish
foia
girl
harmony
hostile
huh
incubator
minimum
monopoly
npo
optimist
ours
paradigm
passive
payer
penghu
procedure
producer
profits
race
reject
replicate
reporter
residence
respected
reviews
roads
scam
served
shifting
situations
solid
sub
switching
taoist
thursday
trustworthy
uh
utensils
yngve
##bility
##card
##ctional
##dies
##ending
##ern
##iation
##inal
##its
##link
##mon
##mps
##otic
##riving
##sp
##uration
##ved
##vote
##zy
advise
agreeing
attending
battle
beauty
brother
characteristics
citizenry
classic
classified
confident
councilor
crack
depend
division
divisiveness
domains
domestically
echo
educate
ethnographic
films
fraction
genuine
governor
hosting
instrument
integrating
interference
kid
lagrange
manager
moderate
multinationals
negotiations
nightlife
npos
obligation
parameters
peace
pension
polarizing
procurements
projected
pursue
ratified
realizing
reduced
remove
rent
responded
sacrifice
schoolers
shareholders
silo
simplified
sized
skilled
spreadsheets
stayed
stem
storage
supportive
tom
touched
tracked
trouble
warm
washington
wiki
wins
##als
##bt
##cinct
##city
##day
##dging
##fine
##gi
##iant
##ilizing
##ired
##ks
##ku
##lor
##lty
##lus
##mates
##minate
##minating
##note
##omy
##py
##rit
##side
##tend
##tle
##tt
##ualified
##urn
2008
bangkok
begins
bowling
broke
centimeters
chef
chosen
coders
coordinating
demonstrated
digit
drain
dropping
drunk
earthquakes
eat
ethical
euros
exception
exposure
fairness
fee
figured
flu
forked
formats
gained
highlights
huawei
info
inquiry
instagram
involving
magical
manufactured
maximize
migrant
missed
modalities
modes
neighborhood
newspaper
ordering
outdoor
outline
outreach
peaceful
perceived
perform
pocket
prototyped
rail
recycling
relates
responsive
robust
seemed
sentences
settle
sexual
shareholder
slogan
stance
stops
substantially
successes
systematic
taitung
tasks
taste
tickets
tie
transactional
treating
tree
ubi
valid
waves
writes
##arry
##cated
##conference
##cr
##cur
##dering
##eek
##gate
##gen
##gov
##hy
##ipt
##ld
##lessness
##lls
##losing
##menting
##mes
##my
##rry
##sible
##sies
##sted
##tent
##uard
##ury
##ut
##wan
##xit
10th
34
agent
alive
avatars
bio
blindly
bridges
bureaucratic
cayman
citizenship
comedians
committing
conform
confusing
continent
contributes
controversy
corners
councilors
criticism
debated
difficulty
distrust
drawn
drinking
ecology
enhance
enters
excel
expecting
fixing
flagged
flexibility
flows
footage
glen
hadn
hats
hugging
improvements
inbox
infected
intended
investments
iota
kernel
liquor
lo
matching
men
metric
mobilized
modeled
natives
navigate
neutrality
penalty
plug
poet
pointed
populations
presidents
properties
provider
punish
rainbow
replacing
reputation
researcher
resonating
revenue
script
scroll
settled
sick
signing
song
stewardship
supposedly
symptom
tai
terrible
textual
transaction
translates
travels
typically
unlikely
vast
versa
virtue
visions
vocal
volume
warfare
wild
wing
wording
worst
zongchai
##af
##aneously
##bal
##berties
##bing
##dence
##ean
##ec
##ense
##ew
##hold
##inster
##light
##lity
##mer
##ncing
##olent
##oring
##paration
##pes
##ple
##ribute
##ronic
##rse
##sets
##shing
##sides
##tone
##try
##unk
##ven
##vor
##wed
admit
advisor
antivirus
anxiety
appointed
arc
barrier
basement
boundary
cable
centric
ceremony
classroom
club
combat
conferencing
conserve
consistently
contained
contains
contrast
convene
cooperatives
deals
debris
density
dilemma
drinks
eastern
ensures
episode
facility
falls
fb
fears
feng
flesh
former
fought
historically
hop
humble
iamthecode
immune
import
incident
interpret
intersectionality
invested
ly
managers
manufacture
moments
monitoring
motion
norway
occupying
oneself
pareto
printing
prior
professionals
pseudonym
reader
reflections
resonance
respective
seek
sen
shih
ship
supplies
tag
tangible
unusual
variety
viewing
viewpoints
worries
##air
##aming
##ange
##au
##chat
##cist
##dal
##dg
##ea
##eat
##fined
##hing
##ibilities
##ike
##imeter
##ination
##ini
##ires
##ishing
##lerate
##licit
##makers
##men
##mining
##most
##ound
##plification
##ress
##ruck
##sent
##served
##sle
##tech
##think
##uistic
##ulator
##voke
21
33
advertisers
amplifier
amplifying
arbitrary
architect
athletes
backgrounds
belongs
bi
birth
campaigning
chung
cite
cleantech
clicking
client
clock
codes
columns
compelling
conclusion
continuously
convey
covering
curate
disciplines
dozens
drives
economically
engines
enormous
environments
error
ethos
follows
framed
frontline
gaps
globe
gotten
heading
hearings
highlighting
hoklo
ifcn
intermediaries
interrupt
liquid
maintenance
minor
nesta
netherlands
nurses
overnight
payments
peers
philosopher
picking
poor
practicing
proportional
publishes
quarterly
ranking
recurring
referred
refresh
relaxed
repair
requiring
restricted
restrictions
returned
robotic
sacrificing
scooters
selection
shoes
slower
sme
spec
sports
stays
steering
surrounding
suspects
swift
synergies
textbooks
verified
victory
yushan
##ack
##ah
##antage
##archy
##ase
##bition
##bor
##cies
##cut
##dicated
##dicator
##erate
##fiable
##gers
##gious
##gment
##hes
##iding
##igating
##iling
##lash
##marks
##mine
##old
##oles
##ones
##ora
##pelled
##port
##semble
##sty
##table
##tc
##tional
##ton
##tream
##umb
##vable
##vising
##wei
20th
absorbed
absorbing
addressing
adversarial
agreements
airboxes
alternating
apparent
appealing
attacking
blocked
boss
calculate
causing
clarifying
clustering
coast
confuse
confused
constrained
consume
contributor
cooker
corresponds
culturally
debating
declining
deliberately
deploying
destroy
editors
entertainment
evaluation
footprint
frank
governed
granted
hotline
incubation
indicators
intimate
isolation
john
keen
kill
manga
metro
mock
modality
occupies
painted
parking
passion
personhood
pizza
plural
prayer
privilege
prototyping
rapidly
regards
revealed
ring
rush
scales
shop
shot
skip
specialized
storytelling
symbolic
te
temperature
threatening
tours
tseng
upvote
vietnam
viewers
vp
vpn
weak
wife
willingness
wired
##acies
##alyst
##ancy
##and
##ast
##ave
##bian
##ception
##ched
##cit
##clined
##cover
##dication
##ected
##ff
##gle
##ground
##gs
##hall
##hed
##ich
##ick
##ien
##imize
##iping
##ips
##ised
##iting
##iv
##izers
##ji
##kit
##matic
##mpathetic
##mpted
##nk
##og
##onization
##operate
##ored
##ots
##ows
##pp
##ract
##raph
##rator
##rize
##stances
##tuitive
##ually
##uce
##uency
##ullying
##usion
##xual
##ype
##zing
21st
adapted
addicted
agents
aiming
amsterdam
backed
behaviors
blindness
capitalists
cast
charter
chores
cited
coach
cohen
colleges
competent
concerted
controlling
corona
councils
crowdlaw
decrease
determines
digitization
disruptive
drug
elites
embedded
enjoyed
entirety
expenditure
explicit
fan
figures
forgot
fuller
geneva
geographic
grandchildren
holo
illusion
innovating
intern
interpreted
jianguo
kai
kolas
limiting
meaningfully
mentality
merely
moedict
mohw
networking
newspapers
objectives
optic
panels
passes
patent
patient
peak
ping
player
practitioners
prominent
proposition
province
quoted
regimes
regulated
religion
republican
restriction
revenge
satisfy
siloed
soccer
sortition
spring
standing
supports
theater
touring
trading
transcription
transforming
transitioning
trips
trustworthiness
undergrad
visualize
wei
whoever
yat
##10
##acing
##aging
##ances
##ars
##asive
##atized
##berg
##ci
##culus
##ections
##erated
##ffer
##fied
##ison
##ker
##lling
##mitted
##neath
##ntify
##ography
##onizing
##pies
##pl
##polis
##quence
##rapped
##ream
##signment
##structed
##su
##test
##thesis
##tical
##ua
##uest
##warm
11th
ages
aloud
ambient
amendments
assumption
badge
band
bars
bbc
belief
biases
blood
chairman
cio
clients
coercive
colored
concentrate
concretely
confusion
constraints
continues
cradle
demanding
dialogues
dictionaries
distinct
dive
drone
excluding
exponential
faces
facial
facilitative
filter
flash
focuses
formula
gsg
hardened
headset
hotels
hyper
implications
inequality
intel
intensive
jokes
kpi
lego
literature
lobby
loves
malaysia
matrix
maximum
merging
midnight
mood
n95
netflix
niche
nonpartisan
nurse
observe
operated
orchid
overarching
parliamentarians
passenger
pen
penalties
prototypes
proved
pushed
ranked
rarely
ratio
rebuild
reflected
registry
reporters
rocket
scaled
settings
shanghai
speculative
sustain
tends
tensions
thai
thinkers
towers
transactions
transcribed
triangulation
unification
unified
utility
verbal
verticals
whatnot
witnessed
##acle
##ag
##aka
##atize
##ats
##baba
##ban
##berry
##btq
##ccident
##come
##cribe
##ctic
##em
##erating
##fession
##firm
##fort
##gain
##gent
##hen
##ico
##imity
##ins
##isation
##junction
##las
##lating
##lice
##lihood
##maker
##nded
##oat
##ob
##oi
##ops
##oul
##outs
##pace
##pan
##posed
##position
##pressed
##ride
##ringing
##rorism
##rough
##rtion
##see
##sisting
##urage
##uries
##utional
##version
##ypes
101
17th
70s
a4
aiot
airplane
amendment
anarchy
atm
attracted
auction
backlash
bald
banner
barricade
barriers
bbs
blank
blessed
blessing
buterin
chamber
chia
childhood
chip
claims
collaborators
concurrently
congratulations
consumption
convergence
correspond
crash
dead
delete
describes
destination
epidemiologist
esport
filmed
flagship
fortunately
francisco
fraud
fruitful
git
govern
grab
gradual
greatest
habits
hidden
hierarchies
honored
icelandic
impose
indexed
inoculated
inputs
interfere
interventions
intuition
irc
isolated
jointly
kao
kick
kiosk
ko
lacking
landing
leaks
learnings
liability
licensing
lineages
magically
marginal
minimal
mountaineering
naer
neural
ning
normativity
optimizing
originated
partial
passionate
pill
poll
preventing
processed
procure
pronounce
pushback
ratification
recognizing
refusing
relief
repository
reviewed
revitalize
saved
scenarios
shirt
silly
simplify
speculation
sponsors
sprint
statistical
steam
streams
studio
subscribe
sunday
surprise
suspect
teaches
technologically
teenagers
token
touching
transparently
trilingual
uniquely
village
wed
weight
yang
yeh
zach
##!
##"
###
##$
##%
##&
##'
##(
##)
##*
##+
##,
##-
##.
##/
##:
##;
##=
##?
##@
##[
##\
##]
##_
##j
##{
##}
##£
##©
##«
##¬
##®
##°
##·
##×
##ø
##ƒ
##ʉ
##‐
##–
##—
##‘
##’
##“
##”
##„
## 
##€
##、
##。
##「
##」
##ㄧ
##一
##七
##三
##上
##下
##不
##且
##世
##丘
##丟
##並
##中
##丹
##主
##久
##之
##乎
##乏
##九
##也
##了
##事
##二
##互
##五
##些
##亞
##交
##亨
##享
##亮
##人
##什
##仁
##仇
##今
##介
##他
##付
##代
##令
##以
##仲
##件
##任
##份
##企
##伏
##会
##伴
##似
##但
##位
##低
##住
##佔
##何
##余
##作
##你
##併
##使
##來
##例
##供
##侶
##便
##係
##促
##保
##信
##修
##個
##們
##倒
##候
##借
##倡
##值
##假
##偉
##偏
##做
##健
##備
##傳
##傷
##傾
##像
##僕
##價
##儀
##儲
##元
##充
##先
##光
##免
##兒
##入
##內
##全
##兩
##八
##公
##六
##共
##其
##具
##典
##再
##冒
##凝
##出
##函
##分
##切
##列
##初
##別
##利
##到
##制
##刻
##前
##剑
##剛
##剝
##剩
##創
##力
##功
##加
##助
##勇
##動
##務
##勞
##募
##勢
##勵
##包
##化
##北
##匯
##區
##十
##千
##升
##午
##半
##华
##卓
##協
##南
##占
##卦
##印
##即
##卷
##原
##厲
##去
##参
##參
##又
##及
##友
##反
##取
##受
##口
##古
##句
##另
##只
##叫
##可
##台
##史
##右
##司
##吃
##各
##合
##同
##名
##向
##君
##否
##吧
##含
##吳
##吸
##告
##呢
##周
##命
##和
##品
##員
##哪
##唐
##唯
##商
##啊
##問
##喜
##單
##嗎
##器
##嚴
##四
##回
##因
##困
##圈
##國
##圍
##圖
##團
##土
##在
##地
##址
##坊
##坑
##坡
##型
##城
##域
##培
##基
##報
##場
##塊
##填
##境
##壞
##士
##夏
##外
##多
##夠
##大
##天
##太
##央
##失
##夷
##套
##女
##她
##好
##如
##始
##委
##姨
##姻
##婉
##婚
##媒
##子
##字
##存
##孩
##學
##它
##安
##完
##宗
##官
##定
##客
##宣
##室
##害
##家
##容
##察
##實
##寧
##審
##寫
##寬
##將
##專
##對
##導
##小
##少
##尤
##就
##尼
##展
##層
##岸
##島
##工
##差
##己
##已
##市
##希
##師
##帳
##帶
##常
##幫
##平
##年
##幸
##幾
##序
##底
##府
##度
##庫
##康
##廠
##廣
##延
##建
##式
##引
##張
##強
##形
##彩
##影
##彼
##往
##征
##待
##很
##律
##後
##得
##從
##微
##徵
##德
##心
##必
##志
##忙
##快
##念
##怎
##怕
##思
##性
##息
##您
##情
##惡
##想
##愈
##意
##愛
##感
##慈
##態
##慢
##慧
##慮
##憑
##憨
##憶
##懂
##應
##懷
##戀
##成
##我
##或
##戰
##所
##手
##才
##打
##扣
##找
##技
##把
##投
##抗
##拿
##持
##指
##按
##挑
##挺
##捐
##掉
##採
##接
##控
##推
##提
##換
##揭
##援
##播
##擊
##支
##收
##改
##攻
##放
##政
##效
##敗
##教
##散
##整
##數
##文
##料
##新
##斷
##方
##於
##施
##旁
##族
##旗
##日
##早
##明
##易
##星
##映
##昨
##是
##時
##景
##智
##暖
##暴
##更
##書
##最
##會
##月
##有
##朋
##服
##望
##期
##未
##本
##李
##材
##束
##東
##松
##林
##果
##架
##某
##染
##查
##校
##核
##根
##格
##案
##條
##棋
##棒
##楊
##楚
##業
##概
##榮
##構
##樂
##標
##模
##樣
##機
##權
##次
##歐
##歡
##止
##正
##此
##步
##歲
##歷
##段
##每
##比
##民
##氣
##水
##永
##求
##江
##決
##沒
##沙
##治
##況
##法
##注
##津
##洲
##活
##派
##流
##海
##消
##深
##清
##減
##測
##港
##源
##準
##溝
##滿
##演
##澳
##激
##濟
##灣
##災
##為
##無
##然
##照
##熟
##營
##爆
##爭
##爾
##片
##版
##牌
##牛
##物
##特
##狀
##獨
##獻
##玉
##現
##理
##瑋
##環
##甚
##生
##產
##用
##由
##申
##界
##留
##畫
##當
##疑
##疫
##疾
##登
##發
##白
##百
##的
##益
##盒
##盛
##盟
##盡
##監
##目
##直
##相
##省
##看
##真
##眼
##眾
##瞭
##知
##矽
##研
##破
##硬
##碰
##確
##碼
##礎
##示
##社
##神
##票
##福
##禮
##科
##稅
##程
##稍
##種
##稱
##稿
##積
##究
##空
##突
##立
##站
##章
##端
##競
##笑
##第
##等
##答
##策
##算
##管
##節
##篡
##簡
##精
##糟
##系
##紀
##約
##納
##紐
##紙
##級
##素
##組
##結
##絕
##給
##統
##經
##維
##網
##線
##練
##總
##績
##織
##繫
##繼
##續
##缺
##置
##署
##美
##群
##義
##習
##翔
##翻
##老
##考
##者
##而
##聊
##聚
##聞
##聯
##職
##聽
##育
##背
##能
##脫
##腦
##臉
##自
##至
##致
##臺
##與
##興
##舉
##般
##色
##花
##英
##草
##華
##萬
##落
##葉
##著
##蔡
##藝
##蘋
##蘭
##處
##融
##行
##術
##街
##衡
##表
##被
##補
##裡
##製
##複
##西
##要
##覆
##見
##規
##視
##覺
##觀
##角
##解
##言
##計
##訊
##討
##訓
##記
##訪
##設
##許
##訴
##詢
##試
##詩
##話
##該
##認
##語
##說
##誰
##課
##調
##談
##請
##論
##諮
##謂
##講
##謝
##證
##識
##譯
##議
##護
##讀
##變
##讓
##谷
##象
##負
##貢
##貨
##責
##買
##費
##資
##質
##賴
##賺
##購
##走
##起
##超
##越
##趣
##足
##跑
##距
##跟
##跨
##路
##跳
##身
##車
##軍
##軟
##較
##載
##輕
##輩
##轉
##辦
##辭
##迎
##近
##送
##透
##逐
##這
##通
##造
##連
##進
##遊
##運
##過
##道
##達
##違
##遞
##遠
##適
##選
##還
##邊
##那
##部
##都
##鄉
##鄭
##釋
##重
##量
##金
##錄
##錢
##錯
##鏈
##鐘
##長
##长
##門
##開
##間
##閣
##關
##防
##阿
##降
##限
##院
##除
##陳
##陸
##陽
##隊
##隔
##際
##隨
##雄
##集
##雖
##雙
##離
##難
##雲
##電
##需
##震
##露
##青
##非
##面
##音
##響
##頁
##項
##順
##須
##預
##領
##頭
##頻
##題
##願
##類
##顧
##風
##食
##養
##館
##首
##香
##馬
##駕
##駭
##驗
##體
##高
##魯
##鳳
##麗
##麼
##黃
##黑
##點
##黨
##🔒
